unsigned char tflite_model_tflite[] = {
  0x1c, 0x00, 0x00, 0x00, 0x54, 0x46, 0x4c, 0x33, 0x14, 0x00, 0x20, 0x00,
  0x1c, 0x00, 0x18, 0x00, 0x14, 0x00, 0x10, 0x00, 0x0c, 0x00, 0x00, 0x00,
  0x08, 0x00, 0x04, 0x00, 0x14, 0x00, 0x00, 0x00, 0x1c, 0x00, 0x00, 0x00,
  0x80, 0x00, 0x00, 0x00, 0xd0, 0x00, 0x00, 0x00, 0x64, 0x13, 0x00, 0x00,
  0x74, 0x13, 0x00, 0x00, 0x80, 0x4a, 0x00, 0x00, 0x03, 0x00, 0x00, 0x00,
  0x01, 0x00, 0x00, 0x00, 0x04, 0x00, 0x00, 0x00, 0x46, 0xc6, 0xff, 0xff,
  0x0c, 0x00, 0x00, 0x00, 0x1c, 0x00, 0x00, 0x00, 0x38, 0x00, 0x00, 0x00,
  0x0f, 0x00, 0x00, 0x00, 0x73, 0x65, 0x72, 0x76, 0x69, 0x6e, 0x67, 0x5f,
  0x64, 0x65, 0x66, 0x61, 0x75, 0x6c, 0x74, 0x00, 0x01, 0x00, 0x00, 0x00,
  0x04, 0x00, 0x00, 0x00, 0x10, 0xc8, 0xff, 0xff, 0x36, 0x00, 0x00, 0x00,
  0x04, 0x00, 0x00, 0x00, 0x07, 0x00, 0x00, 0x00, 0x64, 0x65, 0x6e, 0x73,
  0x65, 0x5f, 0x31, 0x00, 0x01, 0x00, 0x00, 0x00, 0x04, 0x00, 0x00, 0x00,
  0x4a, 0xc6, 0xff, 0xff, 0x04, 0x00, 0x00, 0x00, 0x07, 0x00, 0x00, 0x00,
  0x69, 0x6e, 0x70, 0x75, 0x74, 0x5f, 0x31, 0x00, 0x02, 0x00, 0x00, 0x00,
  0x2c, 0x00, 0x00, 0x00, 0x04, 0x00, 0x00, 0x00, 0x50, 0xc8, 0xff, 0xff,
  0x8b, 0x00, 0x00, 0x00, 0x04, 0x00, 0x00, 0x00, 0x13, 0x00, 0x00, 0x00,
  0x43, 0x4f, 0x4e, 0x56, 0x45, 0x52, 0x53, 0x49, 0x4f, 0x4e, 0x5f, 0x4d,
  0x45, 0x54, 0x41, 0x44, 0x41, 0x54, 0x41, 0x00, 0x74, 0xc8, 0xff, 0xff,
  0x8a, 0x00, 0x00, 0x00, 0x04, 0x00, 0x00, 0x00, 0x13, 0x00, 0x00, 0x00,
  0x6d, 0x69, 0x6e, 0x5f, 0x72, 0x75, 0x6e, 0x74, 0x69, 0x6d, 0x65, 0x5f,
  0x76, 0x65, 0x72, 0x73, 0x69, 0x6f, 0x6e, 0x00, 0x8c, 0x00, 0x00, 0x00,
  0x90, 0x12, 0x00, 0x00, 0x88, 0x12, 0x00, 0x00, 0xf8, 0x11, 0x00, 0x00,
  0xa8, 0x11, 0x00, 0x00, 0x90, 0x11, 0x00, 0x00, 0x78, 0x11, 0x00, 0x00,
  0x64, 0x11, 0x00, 0x00, 0x50, 0x11, 0x00, 0x00, 0x3c, 0x11, 0x00, 0x00,
  0x24, 0x11, 0x00, 0x00, 0x10, 0x11, 0x00, 0x00, 0xf4, 0x10, 0x00, 0x00,
  0xe0, 0x10, 0x00, 0x00, 0xcc, 0x10, 0x00, 0x00, 0xc4, 0x10, 0x00, 0x00,
  0xac, 0x10, 0x00, 0x00, 0x94, 0x10, 0x00, 0x00, 0x64, 0x10, 0x00, 0x00,
  0x44, 0x10, 0x00, 0x00, 0x28, 0x10, 0x00, 0x00, 0x0c, 0x10, 0x00, 0x00,
  0xf0, 0x0f, 0x00, 0x00, 0xe8, 0x0f, 0x00, 0x00, 0xe0, 0x0f, 0x00, 0x00,
  0xd8, 0x0f, 0x00, 0x00, 0xd0, 0x0f, 0x00, 0x00, 0xc8, 0x0f, 0x00, 0x00,
  0xc0, 0x0f, 0x00, 0x00, 0xb8, 0x0f, 0x00, 0x00, 0xb0, 0x0f, 0x00, 0x00,
  0xa8, 0x0f, 0x00, 0x00, 0xa0, 0x0f, 0x00, 0x00, 0x98, 0x0f, 0x00, 0x00,
  0x90, 0x0f, 0x00, 0x00, 0x88, 0x0f, 0x00, 0x00, 0x80, 0x0f, 0x00, 0x00,
  0x78, 0x0f, 0x00, 0x00, 0x70, 0x0f, 0x00, 0x00, 0x68, 0x0f, 0x00, 0x00,
  0x60, 0x0f, 0x00, 0x00, 0x58, 0x0f, 0x00, 0x00, 0x50, 0x0f, 0x00, 0x00,
  0x48, 0x0f, 0x00, 0x00, 0x40, 0x0f, 0x00, 0x00, 0x38, 0x0f, 0x00, 0x00,
  0x30, 0x0f, 0x00, 0x00, 0x28, 0x0f, 0x00, 0x00, 0x20, 0x0f, 0x00, 0x00,
  0x18, 0x0f, 0x00, 0x00, 0x10, 0x0f, 0x00, 0x00, 0x08, 0x0f, 0x00, 0x00,
  0x00, 0x0f, 0x00, 0x00, 0xf8, 0x0e, 0x00, 0x00, 0xf0, 0x0e, 0x00, 0x00,
  0xe8, 0x0e, 0x00, 0x00, 0xe0, 0x0e, 0x00, 0x00, 0xd8, 0x0e, 0x00, 0x00,
  0xd0, 0x0e, 0x00, 0x00, 0xc8, 0x0e, 0x00, 0x00, 0xc0, 0x0e, 0x00, 0x00,
  0xb8, 0x0e, 0x00, 0x00, 0xb0, 0x0e, 0x00, 0x00, 0x9c, 0x0e, 0x00, 0x00,
  0x94, 0x0e, 0x00, 0x00, 0x8c, 0x0e, 0x00, 0x00, 0x84, 0x0e, 0x00, 0x00,
  0x7c, 0x0e, 0x00, 0x00, 0x74, 0x0e, 0x00, 0x00, 0x6c, 0x0e, 0x00, 0x00,
  0x64, 0x0e, 0x00, 0x00, 0xd4, 0x0d, 0x00, 0x00, 0xbc, 0x0d, 0x00, 0x00,
  0xa8, 0x0d, 0x00, 0x00, 0x98, 0x09, 0x00, 0x00, 0x08, 0x06, 0x00, 0x00,
  0x00, 0x06, 0x00, 0x00, 0xf8, 0x05, 0x00, 0x00, 0xf0, 0x05, 0x00, 0x00,
  0xe8, 0x05, 0x00, 0x00, 0xe0, 0x05, 0x00, 0x00, 0xd8, 0x05, 0x00, 0x00,
  0xd0, 0x05, 0x00, 0x00, 0xc8, 0x05, 0x00, 0x00, 0xc0, 0x05, 0x00, 0x00,
  0xb8, 0x05, 0x00, 0x00, 0xb0, 0x05, 0x00, 0x00, 0xa8, 0x05, 0x00, 0x00,
  0xa0, 0x05, 0x00, 0x00, 0x98, 0x05, 0x00, 0x00, 0x90, 0x05, 0x00, 0x00,
  0x88, 0x05, 0x00, 0x00, 0x80, 0x05, 0x00, 0x00, 0x78, 0x05, 0x00, 0x00,
  0x70, 0x05, 0x00, 0x00, 0x68, 0x05, 0x00, 0x00, 0x60, 0x05, 0x00, 0x00,
  0x58, 0x05, 0x00, 0x00, 0x50, 0x05, 0x00, 0x00, 0x48, 0x05, 0x00, 0x00,
  0x40, 0x05, 0x00, 0x00, 0x38, 0x05, 0x00, 0x00, 0x30, 0x05, 0x00, 0x00,
  0x28, 0x05, 0x00, 0x00, 0x20, 0x05, 0x00, 0x00, 0x18, 0x05, 0x00, 0x00,
  0x10, 0x05, 0x00, 0x00, 0x08, 0x05, 0x00, 0x00, 0x00, 0x05, 0x00, 0x00,
  0xf8, 0x04, 0x00, 0x00, 0xf0, 0x04, 0x00, 0x00, 0xe8, 0x04, 0x00, 0x00,
  0xd4, 0x04, 0x00, 0x00, 0x84, 0x04, 0x00, 0x00, 0x6c, 0x04, 0x00, 0x00,
  0x58, 0x04, 0x00, 0x00, 0x48, 0x03, 0x00, 0x00, 0x38, 0x01, 0x00, 0x00,
  0x30, 0x01, 0x00, 0x00, 0x28, 0x01, 0x00, 0x00, 0x20, 0x01, 0x00, 0x00,
  0x18, 0x01, 0x00, 0x00, 0x10, 0x01, 0x00, 0x00, 0x08, 0x01, 0x00, 0x00,
  0x00, 0x01, 0x00, 0x00, 0xf8, 0x00, 0x00, 0x00, 0xf0, 0x00, 0x00, 0x00,
  0xe8, 0x00, 0x00, 0x00, 0xe0, 0x00, 0x00, 0x00, 0xd8, 0x00, 0x00, 0x00,
  0xd0, 0x00, 0x00, 0x00, 0xc8, 0x00, 0x00, 0x00, 0xc0, 0x00, 0x00, 0x00,
  0xb8, 0x00, 0x00, 0x00, 0xb0, 0x00, 0x00, 0x00, 0xa8, 0x00, 0x00, 0x00,
  0xa0, 0x00, 0x00, 0x00, 0x98, 0x00, 0x00, 0x00, 0x90, 0x00, 0x00, 0x00,
  0x70, 0x00, 0x00, 0x00, 0x04, 0x00, 0x00, 0x00, 0xe6, 0xc8, 0xff, 0xff,
  0x04, 0x00, 0x00, 0x00, 0x5c, 0x00, 0x00, 0x00, 0x0c, 0x00, 0x00, 0x00,
  0x08, 0x00, 0x0e, 0x00, 0x08, 0x00, 0x04, 0x00, 0x08, 0x00, 0x00, 0x00,
  0x14, 0x00, 0x00, 0x00, 0x2c, 0x00, 0x00, 0x00, 0x00, 0x00, 0x0a, 0x00,
  0x0c, 0x00, 0x08, 0x00, 0x00, 0x00, 0x07, 0x00, 0x0a, 0x00, 0x00, 0x00,
  0x00, 0x00, 0x00, 0x01, 0x04, 0x00, 0x00, 0x00, 0x00, 0x00, 0x00, 0x00,
  0x00, 0x00, 0x0a, 0x00, 0x10, 0x00, 0x0c, 0x00, 0x08, 0x00, 0x04, 0x00,
  0x0a, 0x00, 0x00, 0x00, 0x02, 0x00, 0x00, 0x00, 0x02, 0x00, 0x00, 0x00,
  0x04, 0x00, 0x00, 0x00, 0x05, 0x00, 0x00, 0x00, 0x32, 0x2e, 0x39, 0x2e,
  0x32, 0x00, 0x00, 0x00, 0x4e, 0xc9, 0xff, 0xff, 0x04, 0x00, 0x00, 0x00,
  0x10, 0x00, 0x00, 0x00, 0x31, 0x2e, 0x31, 0x35, 0x2e, 0x30, 0x00, 0x00,
  0x00, 0x00, 0x00, 0x00, 0x00, 0x00, 0x00, 0x00, 0x28, 0xb8, 0xff, 0xff,
  0x2c, 0xb8, 0xff, 0xff, 0x30, 0xb8, 0xff, 0xff, 0x34, 0xb8, 0xff, 0xff,
  0x38, 0xb8, 0xff, 0xff, 0x3c, 0xb8, 0xff, 0xff, 0x40, 0xb8, 0xff, 0xff,
  0x44, 0xb8, 0xff, 0xff, 0x48, 0xb8, 0xff, 0xff, 0x4c, 0xb8, 0xff, 0xff,
  0x50, 0xb8, 0xff, 0xff, 0x54, 0xb8, 0xff, 0xff, 0x58, 0xb8, 0xff, 0xff,
  0x5c, 0xb8, 0xff, 0xff, 0x60, 0xb8, 0xff, 0xff, 0x64, 0xb8, 0xff, 0xff,
  0x68, 0xb8, 0xff, 0xff, 0x6c, 0xb8, 0xff, 0xff, 0x70, 0xb8, 0xff, 0xff,
  0x74, 0xb8, 0xff, 0xff, 0x78, 0xb8, 0xff, 0xff, 0xbe, 0xc9, 0xff, 0xff,
  0x04, 0x00, 0x00, 0x00, 0x00, 0x02, 0x00, 0x00, 0x3c, 0x3a, 0x1b, 0xbf,
  0xc0, 0x1d, 0xd1, 0xbe, 0xdd, 0xfe, 0x93, 0x3f, 0x63, 0xe5, 0x51, 0xbf,
  0x58, 0x81, 0xf3, 0x3e, 0xba, 0x19, 0xb9, 0xbe, 0xf5, 0x08, 0x19, 0x3f,
  0x49, 0x3c, 0x6d, 0xbf, 0x15, 0x47, 0x4e, 0xbf, 0x2f, 0xca, 0x32, 0xbf,
  0xa6, 0x60, 0x5f, 0x3f, 0x3e, 0xc5, 0x6b, 0xbe, 0x96, 0xa1, 0x1c, 0x3e,
  0xba, 0x8d, 0x8f, 0xbf, 0xb8, 0x99, 0x83, 0x3f, 0x35, 0xd4, 0xcf, 0x3e,
  0xeb, 0xaa, 0x02, 0xbf, 0x13, 0x8b, 0x91, 0xbe, 0xe4, 0x5f, 0xde, 0x3e,
  0x11, 0x9d, 0xc2, 0xbe, 0xf7, 0x79, 0x8a, 0x3f, 0xb6, 0xb8, 0x82, 0xbf,
  0x68, 0xdc, 0x09, 0x3f, 0xfc, 0x73, 0x62, 0xbf, 0x00, 0x2c, 0x20, 0xbf,
  0x55, 0xf0, 0x4b, 0xbf, 0xa2, 0xe7, 0x15, 0x3f, 0x14, 0x27, 0x62, 0xbf,
  0xa4, 0x9b, 0x8d, 0x3e, 0x76, 0xb7, 0x7f, 0xbf, 0x79, 0xcc, 0xc5, 0x3d,
  0x69, 0x88, 0x5d, 0xbf, 0x10, 0x80, 0xc7, 0x3d, 0x30, 0xfe, 0xae, 0x3d,
  0x30, 0x04, 0x09, 0x3e, 0x40, 0x59, 0x5c, 0x3d, 0xc4, 0xf6, 0x95, 0x3e,
  0x18, 0x64, 0x88, 0x3e, 0x38, 0x36, 0x8d, 0xbe, 0xac, 0x38, 0xa8, 0xbe,
  0x88, 0x15, 0x72, 0x3e, 0x9c, 0x3a, 0xf5, 0xbe, 0xdc, 0xb6, 0xd7, 0x3e,
  0x08, 0x21, 0x33, 0x3e, 0xa0, 0x68, 0x20, 0xbe, 0xe0, 0xe7, 0xa8, 0x3e,
  0x60, 0xa4, 0xf6, 0x3e, 0x80, 0x9d, 0x22, 0xbc, 0x04, 0xf6, 0xe0, 0xbe,
  0x40, 0x2d, 0xf2, 0x3c, 0x00, 0x17, 0xdf, 0x3e, 0xc0, 0x55, 0x06, 0x3e,
  0x60, 0xcf, 0x7f, 0xbd, 0x90, 0x57, 0xa5, 0x3e, 0x00, 0xd4, 0xb7, 0x3c,
  0x50, 0x5f, 0xf1, 0x3e, 0x90, 0xa1, 0xf4, 0xbe, 0x40, 0x03, 0xce, 0x3d,
  0x58, 0x6a, 0x20, 0xbe, 0x88, 0x0a, 0x6e, 0xbe, 0x44, 0x20, 0xf4, 0xbe,
  0x28, 0xd6, 0xcb, 0xbe, 0xa0, 0xf2, 0xc8, 0x3e, 0x44, 0x80, 0x93, 0x3e,
  0x95, 0x94, 0x1c, 0x3f, 0xca, 0xa2, 0xe5, 0x3e, 0x5d, 0x27, 0x84, 0xbe,
  0x1d, 0xe7, 0x42, 0x3f, 0x02, 0x57, 0xe0, 0x3b, 0x2f, 0x11, 0x54, 0x3e,
  0x17, 0xc0, 0x48, 0x3d, 0x82, 0xeb, 0x8e, 0xbf, 0x3f, 0xe1, 0x5d, 0xbf,
  0xd3, 0xf6, 0x71, 0xbf, 0x36, 0x41, 0xae, 0x3e, 0x9d, 0x9a, 0xaf, 0xbc,
  0x7c, 0x12, 0xdb, 0x3e, 0x73, 0xce, 0x46, 0x3e, 0xca, 0x0e, 0x85, 0x3f,
  0x58, 0x48, 0x0d, 0x3f, 0x6e, 0x0b, 0x72, 0x3e, 0x4d, 0x8d, 0x50, 0x3f,
  0x13, 0x58, 0xb6, 0x3d, 0x63, 0x46, 0x8b, 0x3e, 0xd4, 0x02, 0x01, 0xbf,
  0x67, 0x45, 0x2f, 0xbe, 0xbc, 0x99, 0x1a, 0xbf, 0xf4, 0x7e, 0x59, 0xbf,
  0xc8, 0x0f, 0x42, 0x3e, 0x24, 0x0a, 0x33, 0x3f, 0x17, 0x86, 0x5e, 0xbe,
  0xa4, 0x45, 0xac, 0x3e, 0x29, 0xf6, 0x02, 0xbf, 0xea, 0xa5, 0xc0, 0xbd,
  0x6a, 0xfc, 0x34, 0xbe, 0x20, 0x00, 0x7e, 0xbf, 0xa3, 0x39, 0x6d, 0xbf,
  0xad, 0xc4, 0x63, 0xbf, 0xa4, 0x61, 0xa1, 0x3f, 0x8a, 0x91, 0xe9, 0xbe,
  0x1b, 0xad, 0x8b, 0x3f, 0xd3, 0x59, 0x40, 0xbd, 0x7d, 0xdf, 0x6d, 0x3f,
  0x86, 0x72, 0x8d, 0xbf, 0x09, 0x86, 0xd0, 0xbd, 0xe6, 0x6c, 0x82, 0xbf,
  0x3d, 0x35, 0x8f, 0x3f, 0x46, 0x66, 0x76, 0xbf, 0xe7, 0x9a, 0x22, 0x3f,
  0x14, 0x9c, 0xcf, 0xbe, 0x7c, 0x92, 0x7b, 0x3e, 0xc4, 0xad, 0x55, 0x3f,
  0x22, 0x70, 0x06, 0xbd, 0xd2, 0x49, 0x48, 0xbe, 0x81, 0xbf, 0x8e, 0x3f,
  0x67, 0x5d, 0x33, 0xbe, 0x70, 0x34, 0x3c, 0x3f, 0x2d, 0x49, 0x88, 0xbf,
  0xd8, 0x87, 0x80, 0x3f, 0x80, 0x60, 0x18, 0xbf, 0xe3, 0x4f, 0x74, 0xbf,
  0x58, 0xcf, 0x26, 0xbe, 0xcf, 0x57, 0x52, 0x3f, 0x36, 0x40, 0x1d, 0xbf,
  0xbc, 0xe7, 0x17, 0x3f, 0xb7, 0x47, 0x82, 0xbf, 0x4b, 0x7d, 0x7c, 0x3f,
  0xac, 0x52, 0x78, 0xbf, 0xca, 0xcb, 0xff, 0xff, 0x04, 0x00, 0x00, 0x00,
  0x00, 0x01, 0x00, 0x00, 0xc0, 0x73, 0xa8, 0xbd, 0x42, 0x43, 0xba, 0x3d,
  0x95, 0xa2, 0x0f, 0xbf, 0x7b, 0x27, 0xc3, 0x3e, 0xd4, 0xe9, 0xf8, 0xbd,
  0x96, 0x68, 0x5a, 0xbe, 0x96, 0x47, 0x0e, 0xbe, 0xb0, 0xa3, 0xd1, 0xbd,
  0x89, 0x40, 0xb7, 0xbd, 0x6f, 0x90, 0x13, 0x3d, 0x0c, 0x3f, 0x82, 0x3d,
  0x78, 0xaa, 0x98, 0x3e, 0x73, 0x9c, 0xfa, 0xbe, 0x36, 0xdf, 0x9b, 0xbe,
  0x6a, 0x9e, 0x3a, 0x3e, 0xf1, 0x1b, 0x2c, 0xbe, 0x27, 0xa7, 0x95, 0x3d,
  0x77, 0x2b, 0xdc, 0xbd, 0x52, 0xde, 0x1b, 0x3e, 0x14, 0xcc, 0x94, 0x3e,
  0x35, 0x95, 0x6a, 0xbe, 0xdb, 0xf9, 0xb1, 0xbe, 0x67, 0x0d, 0xcb, 0xbe,
  0x56, 0x1c, 0xc6, 0x3c, 0x96, 0xe0, 0x8d, 0xbe, 0xf0, 0x0d, 0x88, 0x3b,
  0xe0, 0xc4, 0x2c, 0x3e, 0x0c, 0x49, 0xca, 0xbc, 0x6d, 0x4b, 0x00, 0x3e,
  0xf4, 0x55, 0x8b, 0xbe, 0xc4, 0x0c, 0x78, 0x3e, 0xd4, 0x45, 0x07, 0x3f,
  0x02, 0x58, 0x82, 0x3e, 0xc8, 0x80, 0xbb, 0xbe, 0xc7, 0xff, 0x80, 0xbe,
  0x3d, 0xfa, 0xb4, 0x3d, 0x3d, 0x39, 0x4e, 0xbe, 0x54, 0x26, 0xe2, 0x3e,
  0xd0, 0xed, 0x64, 0xbc, 0x56, 0xff, 0xcc, 0x3e, 0x8c, 0x6a, 0xd4, 0x3e,
  0x3b, 0x31, 0x52, 0xbe, 0x1f, 0x9c, 0x40, 0xbe, 0xc3, 0xd0, 0x1e, 0x3e,
  0x27, 0xf8, 0x54, 0xbe, 0x1d, 0x95, 0xb3, 0x3e, 0x87, 0xfe, 0xe9, 0xbe,
  0x54, 0xb8, 0xcc, 0xbd, 0x9f, 0x95, 0x33, 0xbe, 0x82, 0x08, 0x26, 0xbd,
  0x96, 0x64, 0x18, 0x3d, 0xb0, 0xc6, 0x4e, 0x3e, 0x02, 0x04, 0x5d, 0xbd,
  0xf4, 0xff, 0x85, 0xbe, 0xa4, 0xd4, 0x0a, 0xbe, 0x96, 0x56, 0x0c, 0xbe,
  0xe1, 0xad, 0x0e, 0xbe, 0xce, 0xef, 0x76, 0x3d, 0xe6, 0xfc, 0x37, 0x3e,
  0x68, 0xca, 0x7d, 0x3e, 0xd2, 0xcc, 0xe8, 0x3e, 0xee, 0xaa, 0x8e, 0x3e,
  0x60, 0xba, 0x05, 0x3d, 0xb4, 0x62, 0x4a, 0xbe, 0xd6, 0xcc, 0xff, 0xff,
  0x04, 0x00, 0x00, 0x00, 0x04, 0x00, 0x00, 0x00, 0x01, 0x00, 0x00, 0x00,
  0xe6, 0xcc, 0xff, 0xff, 0x04, 0x00, 0x00, 0x00, 0x08, 0x00, 0x00, 0x00,
  0xff, 0xff, 0xff, 0xff, 0x08, 0x00, 0x00, 0x00, 0xfa, 0xcc, 0xff, 0xff,
  0x04, 0x00, 0x00, 0x00, 0x40, 0x00, 0x00, 0x00, 0x87, 0x9c, 0x1e, 0x3f,
  0x94, 0x4e, 0x27, 0x3f, 0xaa, 0xb8, 0xdc, 0x3e, 0x60, 0xf9, 0x08, 0x3f,
  0x00, 0x00, 0x80, 0x3f, 0x00, 0x00, 0x80, 0x3f, 0x00, 0x00, 0x80, 0x3f,
  0x00, 0x00, 0x80, 0x3f, 0x73, 0x43, 0xe7, 0xbe, 0xc7, 0xbd, 0xae, 0x3e,
  0x74, 0xc7, 0xee, 0xbd, 0x3c, 0x59, 0x83, 0xbe, 0x61, 0xaf, 0x19, 0x3f,
  0xa1, 0x8b, 0x0b, 0x3f, 0xb7, 0xdf, 0xcc, 0x3e, 0x85, 0x48, 0x06, 0x3f,
  0x46, 0xcd, 0xff, 0xff, 0x04, 0x00, 0x00, 0x00, 0x04, 0x00, 0x00, 0x00,
  0x00, 0x00, 0x00, 0x00, 0x14, 0xbc, 0xff, 0xff, 0x18, 0xbc, 0xff, 0xff,
  0x1c, 0xbc, 0xff, 0xff, 0x20, 0xbc, 0xff, 0xff, 0x24, 0xbc, 0xff, 0xff,
  0x28, 0xbc, 0xff, 0xff, 0x2c, 0xbc, 0xff, 0xff, 0x30, 0xbc, 0xff, 0xff,
  0x34, 0xbc, 0xff, 0xff, 0x38, 0xbc, 0xff, 0xff, 0x3c, 0xbc, 0xff, 0xff,
  0x40, 0xbc, 0xff, 0xff, 0x44, 0xbc, 0xff, 0xff, 0x48, 0xbc, 0xff, 0xff,
  0x4c, 0xbc, 0xff, 0xff, 0x50, 0xbc, 0xff, 0xff, 0x54, 0xbc, 0xff, 0xff,
  0x58, 0xbc, 0xff, 0xff, 0x5c, 0xbc, 0xff, 0xff, 0x60, 0xbc, 0xff, 0xff,
  0x64, 0xbc, 0xff, 0xff, 0x68, 0xbc, 0xff, 0xff, 0x6c, 0xbc, 0xff, 0xff,
  0x70, 0xbc, 0xff, 0xff, 0x74, 0xbc, 0xff, 0xff, 0x78, 0xbc, 0xff, 0xff,
  0x7c, 0xbc, 0xff, 0xff, 0x80, 0xbc, 0xff, 0xff, 0x84, 0xbc, 0xff, 0xff,
  0x88, 0xbc, 0xff, 0xff, 0x8c, 0xbc, 0xff, 0xff, 0x90, 0xbc, 0xff, 0xff,
  0x94, 0xbc, 0xff, 0xff, 0x98, 0xbc, 0xff, 0xff, 0x9c, 0xbc, 0xff, 0xff,
  0xa0, 0xbc, 0xff, 0xff, 0xe6, 0xcd, 0xff, 0xff, 0x04, 0x00, 0x00, 0x00,
  0x80, 0x03, 0x00, 0x00, 0xce, 0x08, 0xbe, 0x3d, 0xea, 0x4f, 0x74, 0x3e,
  0x2b, 0x11, 0xc4, 0x3e, 0x56, 0xb5, 0xd6, 0x3d, 0x4c, 0x4b, 0x7b, 0xbe,
  0x35, 0x04, 0x76, 0xbc, 0x4e, 0x8c, 0x4d, 0x3e, 0xcd, 0x7a, 0x88, 0xbe,
  0x77, 0x5c, 0xb9, 0x3e, 0xc3, 0x89, 0x0d, 0xbe, 0xe1, 0xa6, 0x65, 0xbd,
  0x77, 0xc8, 0x37, 0xbd, 0x62, 0xde, 0x41, 0x3f, 0xe9, 0x28, 0xc9, 0xbd,
  0x2e, 0x70, 0x1f, 0xbf, 0xb0, 0x4a, 0x58, 0x3e, 0x5a, 0x12, 0xe0, 0x3d,
  0xd4, 0x73, 0xba, 0xbd, 0x4d, 0x51, 0x2c, 0xbc, 0x47, 0xc8, 0x98, 0xbb,
  0x41, 0xc2, 0xd0, 0x3d, 0xc1, 0x30, 0x2a, 0x3d, 0xe2, 0x13, 0xd4, 0x3e,
  0xdb, 0xdb, 0xc1, 0xbe, 0xe1, 0xc8, 0x11, 0x3d, 0x9f, 0x2f, 0x05, 0x3c,
  0x48, 0xc3, 0xd8, 0x3c, 0xdb, 0x38, 0xfb, 0xbd, 0xfe, 0xfc, 0xa8, 0xbe,
  0xe4, 0x6b, 0xdd, 0x3c, 0x4d, 0xc1, 0x36, 0xbe, 0x90, 0xec, 0x5f, 0xbe,
  0x95, 0x6a, 0x1e, 0x3e, 0xa3, 0x48, 0xb8, 0x3b, 0x2c, 0x88, 0x36, 0xbe,
  0x62, 0x70, 0x88, 0xbe, 0xdd, 0xc2, 0x99, 0xbe, 0x12, 0xd4, 0x02, 0xbf,
  0x05, 0x5a, 0xdc, 0xbd, 0xc0, 0x65, 0x1e, 0x3f, 0x19, 0xf8, 0x01, 0x3e,
  0xa1, 0x45, 0xe8, 0x3c, 0x5e, 0x5e, 0x13, 0xbf, 0x16, 0x9e, 0xf7, 0x3c,
  0xf3, 0x13, 0x76, 0xbc, 0x62, 0xcc, 0xa0, 0xbb, 0x80, 0x3a, 0x06, 0xbe,
  0xa4, 0xde, 0x4d, 0xbf, 0x7f, 0x47, 0xd8, 0xbc, 0xf3, 0xc7, 0x11, 0x3f,
  0xa2, 0xba, 0x60, 0x3e, 0xaa, 0xf2, 0x3c, 0xbd, 0xc5, 0x94, 0xc2, 0xbc,
  0x08, 0x17, 0x6f, 0xbd, 0x78, 0xfa, 0x72, 0x3f, 0x79, 0xd6, 0x69, 0xbe,
  0x4e, 0xcf, 0x26, 0x3e, 0x0d, 0x3c, 0x4d, 0xbe, 0xbe, 0xfe, 0x9c, 0xbe,
  0x88, 0xbf, 0x99, 0x3d, 0x93, 0xa3, 0xaf, 0x3e, 0x4e, 0xd6, 0x35, 0x3e,
  0xb8, 0xcc, 0x3c, 0x3d, 0x3e, 0x1a, 0x09, 0x3e, 0x40, 0x46, 0xb4, 0xbd,
  0xb1, 0x66, 0xc5, 0x3e, 0x7e, 0x31, 0x5d, 0xbe, 0xb6, 0x62, 0x3a, 0xbe,
  0x11, 0xfc, 0x81, 0xbe, 0x2a, 0x19, 0x9a, 0xbe, 0x48, 0xcc, 0xec, 0xbd,
  0x4c, 0xac, 0xb5, 0x3d, 0x46, 0xa1, 0x83, 0xbe, 0xe8, 0xf7, 0x3a, 0xbd,
  0xbf, 0xdf, 0x8a, 0x3e, 0x4d, 0x6a, 0xbc, 0x3e, 0x3d, 0x53, 0x92, 0x3e,
  0x30, 0xef, 0x7a, 0xbe, 0x68, 0x0e, 0x0b, 0x3d, 0xb6, 0xe2, 0x07, 0x3e,
  0x50, 0x4f, 0x64, 0xbd, 0x60, 0xcc, 0xf4, 0xbd, 0x56, 0x39, 0x79, 0x3e,
  0x70, 0xe7, 0xa0, 0xbc, 0x00, 0xb8, 0x84, 0xbd, 0x36, 0x19, 0x03, 0x3e,
  0x4c, 0x12, 0xc2, 0xbd, 0x1c, 0x1b, 0xe9, 0x3d, 0x1e, 0x59, 0x5f, 0x3e,
  0x30, 0x3b, 0xab, 0x3d, 0x70, 0xfd, 0x83, 0xbe, 0x30, 0xa4, 0x8e, 0xbe,
  0xd0, 0xf0, 0xa4, 0x3c, 0x22, 0x9a, 0x24, 0x3e, 0xf6, 0xdb, 0x3f, 0x3e,
  0x40, 0x60, 0xd2, 0xbc, 0x03, 0x28, 0x63, 0xbe, 0xb9, 0x49, 0xa5, 0x3e,
  0x49, 0x07, 0xb1, 0x3e, 0x0d, 0xde, 0xc3, 0x3e, 0x3c, 0x8f, 0x0f, 0xbe,
  0x10, 0x7d, 0x85, 0xbc, 0x90, 0xdf, 0x9e, 0xbc, 0x7b, 0x27, 0xc8, 0x3e,
  0x88, 0x2c, 0xa6, 0xbd, 0xd4, 0xd3, 0xce, 0xbd, 0x00, 0xa1, 0xc6, 0x3c,
  0x41, 0x01, 0xba, 0x3e, 0x1e, 0x06, 0x8c, 0xbe, 0x2c, 0xa8, 0x93, 0xbe,
  0x58, 0xf5, 0x29, 0xbd, 0xcc, 0x66, 0x84, 0xbd, 0x15, 0xf1, 0xb6, 0x3e,
  0x46, 0xc4, 0xb4, 0xbe, 0xf5, 0x00, 0x70, 0x3e, 0xf2, 0x2d, 0x26, 0x3e,
  0xa2, 0x08, 0x89, 0x3d, 0x93, 0xf4, 0x11, 0x3e, 0x96, 0x1d, 0x8a, 0xbd,
  0xfc, 0x76, 0x54, 0x3e, 0x52, 0x3b, 0x0d, 0xbe, 0x22, 0x72, 0x96, 0xbd,
  0x8d, 0x10, 0x67, 0xbe, 0xfb, 0x1e, 0x7e, 0x3d, 0x61, 0x83, 0x1e, 0xbe,
  0x5f, 0xc0, 0x71, 0x3d, 0x7d, 0x42, 0x35, 0xbf, 0x30, 0xce, 0xbf, 0x3d,
  0x72, 0xe2, 0xa0, 0x3e, 0x28, 0x4d, 0x7b, 0x3c, 0x8b, 0x48, 0x43, 0xbd,
  0x2a, 0xa8, 0x0d, 0x3e, 0xb5, 0xd9, 0x30, 0x3e, 0xaf, 0x2d, 0x80, 0xbd,
  0xaa, 0xad, 0x9b, 0xbd, 0x5e, 0xa4, 0x20, 0x3e, 0x1e, 0xed, 0x4d, 0xbe,
  0xa5, 0x42, 0x1f, 0xbd, 0x0a, 0xa5, 0x8f, 0xbe, 0xa5, 0x56, 0x9a, 0x3d,
  0xf9, 0x39, 0x18, 0xbf, 0xe4, 0x34, 0x84, 0x3e, 0x88, 0xa5, 0xda, 0x3d,
  0x9e, 0xbe, 0x86, 0xbe, 0x63, 0x08, 0x07, 0x3e, 0xdb, 0x49, 0xf4, 0x3c,
  0x97, 0x9b, 0x3f, 0x3c, 0x71, 0x36, 0xfc, 0x3e, 0xcc, 0xa0, 0x21, 0xbe,
  0x36, 0x29, 0x04, 0xbd, 0xa8, 0xd9, 0x56, 0x3e, 0x4a, 0xa9, 0xc2, 0xbd,
  0x0f, 0xd7, 0x38, 0x3e, 0xfb, 0x64, 0x1e, 0xbe, 0x6a, 0x86, 0x27, 0xbf,
  0xc6, 0xe2, 0x1c, 0x3e, 0xef, 0x08, 0xaf, 0x3d, 0xdc, 0xce, 0xf7, 0x3d,
  0xc5, 0x72, 0x7f, 0x3d, 0x31, 0xa2, 0x2a, 0xbf, 0x0f, 0xa5, 0x66, 0xbd,
  0xb5, 0xb6, 0xf4, 0xbe, 0xab, 0xfe, 0x37, 0xbc, 0x63, 0x88, 0x59, 0x3d,
  0xd8, 0x50, 0xf1, 0x3d, 0x4d, 0x75, 0xfe, 0x3d, 0x44, 0xa8, 0x81, 0xbe,
  0x75, 0x7c, 0xb3, 0x3d, 0x51, 0x6f, 0xc4, 0x3e, 0x74, 0xc2, 0x15, 0x3f,
  0x28, 0xa4, 0x76, 0x3e, 0xb9, 0x4c, 0x9a, 0x3d, 0x53, 0x80, 0xd7, 0xbc,
  0x27, 0xc5, 0xee, 0xbd, 0x4b, 0xec, 0x46, 0xbd, 0xa7, 0x0d, 0xa3, 0xbc,
  0xaf, 0x3f, 0xde, 0x3e, 0x18, 0x38, 0x93, 0xbe, 0xbf, 0x79, 0x49, 0x3d,
  0x80, 0xe3, 0x86, 0xbd, 0x87, 0xf9, 0xc2, 0x3e, 0xf4, 0xbc, 0x38, 0xbe,
  0x16, 0x14, 0xf5, 0xbe, 0xf1, 0xfb, 0x5f, 0x3e, 0x17, 0xda, 0x66, 0xbe,
  0x33, 0xf2, 0x75, 0xbe, 0x64, 0x04, 0x3d, 0xbe, 0xb6, 0x35, 0x9a, 0xbe,
  0x64, 0x00, 0x60, 0x3e, 0xd3, 0x34, 0xa6, 0xbe, 0x98, 0x85, 0xef, 0x3d,
  0x74, 0x19, 0x8b, 0xbd, 0x96, 0xc2, 0xc3, 0x3e, 0x93, 0x1b, 0xaf, 0x3d,
  0x57, 0xc9, 0xe3, 0x3e, 0x91, 0x18, 0xb0, 0xbd, 0x0a, 0xd6, 0xe5, 0xbe,
  0x4b, 0xf1, 0x06, 0x3f, 0x0c, 0xdb, 0x54, 0x3e, 0x6f, 0x66, 0x5d, 0xbb,
  0x90, 0x1c, 0x55, 0x3d, 0x46, 0xff, 0xed, 0xbd, 0x93, 0xc1, 0x9c, 0x3d,
  0xbe, 0xff, 0x97, 0xbd, 0xcf, 0xfa, 0xc9, 0xbe, 0x1c, 0x48, 0x2b, 0xbf,
  0x0d, 0xb6, 0xf0, 0x3d, 0xf2, 0xf9, 0xb6, 0x3e, 0x1c, 0xf5, 0xb7, 0xbe,
  0xd1, 0x4e, 0x22, 0x3e, 0x9c, 0x0b, 0x4e, 0xbe, 0xd3, 0xf0, 0x94, 0x3d,
  0xe3, 0x10, 0x79, 0xbe, 0x28, 0x38, 0x8e, 0x3e, 0xc8, 0x44, 0xa9, 0x3d,
  0x5b, 0x25, 0x03, 0xbf, 0x2f, 0xcb, 0x0d, 0xbd, 0xdd, 0xc7, 0x84, 0x3f,
  0x15, 0x60, 0xc2, 0xbe, 0xe4, 0x9c, 0x59, 0x3f, 0x5b, 0x41, 0x32, 0xbf,
  0xc3, 0xe7, 0xed, 0x3e, 0xdb, 0xaf, 0xaa, 0xbe, 0x98, 0x95, 0x53, 0x3f,
  0x72, 0xd1, 0xff, 0xff, 0x04, 0x00, 0x00, 0x00, 0x00, 0x04, 0x00, 0x00,
  0x80, 0xb5, 0xbd, 0xbc, 0x2b, 0xd0, 0x0a, 0x3e, 0xdd, 0x6f, 0xe2, 0x3d,
  0x8f, 0xac, 0xa6, 0x3b, 0x48, 0x0d, 0x44, 0x3c, 0xa2, 0x0a, 0x35, 0xbe,
  0xc0, 0x1c, 0xb9, 0xbe, 0x56, 0xa9, 0x09, 0xbe, 0x33, 0x6e, 0x03, 0xbe,
  0xec, 0x33, 0xe9, 0x3d, 0x10, 0x46, 0x04, 0xbe, 0xe6, 0xee, 0x1e, 0xbd,
  0x98, 0x36, 0x0b, 0xbe, 0x6e, 0x35, 0x16, 0xbe, 0x06, 0x0e, 0x6c, 0x3e,
  0x8c, 0x91, 0x67, 0xbe, 0xd9, 0x56, 0x02, 0x3d, 0x8e, 0x95, 0xbd, 0xbd,
  0xb2, 0x73, 0x90, 0xbe, 0xfa, 0x9d, 0xbf, 0x3c, 0x18, 0x3b, 0x94, 0x39,
  0x45, 0x2b, 0x12, 0x3d, 0xe9, 0x20, 0x8f, 0x3d, 0xe0, 0x72, 0x05, 0xbe,
  0x20, 0x90, 0x06, 0xbe, 0x60, 0x55, 0xa2, 0xbe, 0x47, 0xb3, 0x7f, 0x3d,
  0x44, 0x64, 0xaa, 0xbd, 0x2f, 0x64, 0xd8, 0xbd, 0xa2, 0x28, 0x60, 0xbe,
  0xc8, 0xc1, 0xed, 0x3d, 0xa6, 0xd6, 0x03, 0x3c, 0xbb, 0xbc, 0x2a, 0xbe,
  0xa9, 0xbe, 0xfd, 0x3d, 0x82, 0x8d, 0x0a, 0xbe, 0xa5, 0x8f, 0x34, 0xbe,
  0x13, 0xa6, 0x0d, 0x3e, 0x2b, 0x13, 0x33, 0xbe, 0x42, 0x27, 0x05, 0x3d,
  0x9d, 0x36, 0x1d, 0xbd, 0xab, 0x74, 0x7f, 0xbe, 0x37, 0x91, 0xab, 0x3d,
  0x38, 0x60, 0x47, 0xbe, 0x2d, 0x77, 0x26, 0x3e, 0x4c, 0xc3, 0xba, 0x3e,
  0x2c, 0x5a, 0x58, 0xbe, 0x4e, 0xe1, 0xc8, 0x3e, 0xcc, 0x89, 0x8b, 0x3d,
  0x6a, 0x68, 0x76, 0xbd, 0x0e, 0x91, 0x43, 0x3e, 0xc1, 0xff, 0xb3, 0xbe,
  0x51, 0x09, 0xde, 0x3b, 0x69, 0x7c, 0x5a, 0xbe, 0xa8, 0x17, 0xcb, 0x3e,
  0x14, 0x0d, 0xd8, 0xbc, 0x07, 0xc3, 0xab, 0xbe, 0x88, 0xb1, 0xf8, 0xbc,
  0x34, 0x4d, 0x8b, 0xbd, 0x58, 0x18, 0x97, 0xbe, 0xf6, 0x9c, 0x58, 0x3c,
  0x46, 0x2f, 0x42, 0xbe, 0x93, 0xb6, 0xdb, 0xbd, 0x03, 0xab, 0x08, 0x3e,
  0x79, 0x4a, 0x96, 0x3e, 0x69, 0xe9, 0xc1, 0x3d, 0xc7, 0x49, 0x21, 0xbe,
  0x65, 0x6f, 0x94, 0xbe, 0x0e, 0xc4, 0xe1, 0x3d, 0xb5, 0x7c, 0xa5, 0xbe,
  0x24, 0x55, 0xb7, 0xbd, 0x80, 0x94, 0x2a, 0xbe, 0x65, 0x89, 0xbe, 0x3e,
  0xdb, 0x82, 0x4e, 0xbd, 0xae, 0x0b, 0x1a, 0x3e, 0xf8, 0xdf, 0xa7, 0xbe,
  0x75, 0x24, 0xe6, 0xbd, 0x97, 0xdc, 0x30, 0x3d, 0xed, 0xe3, 0x18, 0x3d,
  0x2f, 0xd6, 0x3c, 0xbe, 0xf9, 0x7e, 0x09, 0x3e, 0x50, 0x37, 0x48, 0xbd,
  0xca, 0x29, 0xec, 0x3b, 0x45, 0x7f, 0xf8, 0xbd, 0x14, 0x64, 0x85, 0x3e,
  0x2e, 0x44, 0xc7, 0xbd, 0x3d, 0x41, 0xe0, 0x3e, 0x01, 0x90, 0x1f, 0x3e,
  0xee, 0x90, 0xc1, 0xbd, 0x75, 0x3f, 0xe3, 0x3d, 0x35, 0xc2, 0x09, 0x3e,
  0x2d, 0xc0, 0x1c, 0x3d, 0xac, 0x31, 0x12, 0x3e, 0x2c, 0xc6, 0x68, 0x3e,
  0x40, 0x3a, 0x14, 0x3d, 0xbe, 0x18, 0xbb, 0x3d, 0x26, 0x00, 0x2e, 0xbe,
  0x4a, 0xca, 0xda, 0x3c, 0xac, 0xc3, 0xfb, 0xbd, 0xc0, 0xa1, 0xfe, 0xbc,
  0x3d, 0x4a, 0x01, 0xbd, 0xf5, 0xda, 0x8e, 0xbd, 0x73, 0x6e, 0xf0, 0xbd,
  0x71, 0x96, 0xb2, 0xbd, 0x13, 0x57, 0x23, 0x3d, 0xf3, 0xbd, 0x63, 0xbe,
  0xb8, 0x9d, 0x2d, 0xbe, 0xc0, 0x70, 0xbf, 0xbd, 0xd5, 0x5f, 0xae, 0xbc,
  0x35, 0x43, 0xac, 0x3d, 0x92, 0x52, 0xb8, 0xbc, 0xa0, 0x8d, 0x83, 0xbe,
  0xc0, 0x32, 0xc1, 0xbe, 0xfa, 0xb8, 0x98, 0xbe, 0xd1, 0xcf, 0x16, 0x3e,
  0xb2, 0xff, 0xd2, 0x3d, 0x28, 0x36, 0xce, 0xbd, 0x09, 0xdf, 0x7d, 0xbd,
  0x99, 0x3d, 0xaa, 0x3e, 0xe2, 0x4c, 0x19, 0xbe, 0x5b, 0x61, 0x6c, 0x3e,
  0x9e, 0x7f, 0x2b, 0xbe, 0x57, 0x96, 0x98, 0x3c, 0xed, 0x37, 0x14, 0x3e,
  0x05, 0x18, 0x9c, 0x3e, 0xf5, 0xee, 0xf4, 0x3d, 0x2e, 0x89, 0x89, 0xbc,
  0x38, 0x3b, 0xe1, 0xbd, 0x9f, 0x04, 0xd4, 0x3d, 0x8f, 0xd6, 0x8f, 0x3e,
  0x80, 0xad, 0x82, 0x3e, 0xfb, 0x65, 0x97, 0xbe, 0x6a, 0x46, 0x57, 0xbe,
  0x8a, 0xb8, 0xbd, 0xbd, 0xf1, 0x3b, 0xed, 0xbd, 0x23, 0xfa, 0x9c, 0x3d,
  0xc6, 0x95, 0xa9, 0x3d, 0xb2, 0xd9, 0x30, 0x3e, 0xcc, 0x6d, 0x6f, 0xbe,
  0x5c, 0xe6, 0xbf, 0xbc, 0x72, 0x76, 0x5d, 0x3e, 0x15, 0xf8, 0xc5, 0x3e,
  0xa3, 0xee, 0xa8, 0x3e, 0xc2, 0x13, 0x80, 0xbc, 0xaa, 0x4a, 0x49, 0x3e,
  0xc4, 0x49, 0x19, 0xbc, 0x68, 0x1b, 0x2d, 0xbe, 0xb6, 0x17, 0x9e, 0x3d,
  0x5f, 0x85, 0x8b, 0x3e, 0xb7, 0xbc, 0x9e, 0xbe, 0x1b, 0x87, 0x4c, 0xbe,
  0x68, 0x18, 0x1e, 0xbe, 0x72, 0xe4, 0xd7, 0xbd, 0x4e, 0xe0, 0x69, 0xbe,
  0x62, 0xd9, 0x1a, 0x3e, 0xc7, 0x49, 0xea, 0xbd, 0xfa, 0xbb, 0x75, 0x3e,
  0xba, 0xac, 0xc3, 0xbd, 0x6e, 0x95, 0x06, 0xbe, 0x37, 0xbe, 0xab, 0xbd,
  0x24, 0x9e, 0xf1, 0xbd, 0x60, 0xc0, 0xc1, 0xbe, 0x9e, 0xf4, 0x44, 0xbe,
  0x09, 0x6c, 0x0a, 0x3e, 0x52, 0x52, 0x39, 0xbe, 0x2d, 0x56, 0x78, 0xbd,
  0x8c, 0x7b, 0x0b, 0x3e, 0x1b, 0xd4, 0x57, 0x3e, 0x30, 0x6c, 0x41, 0x3e,
  0x2b, 0x0e, 0x50, 0xbb, 0x4e, 0xcd, 0x8c, 0x3e, 0x40, 0xa6, 0x51, 0x3d,
  0x82, 0xa8, 0x82, 0x3e, 0xac, 0xe3, 0x38, 0xbe, 0xd3, 0xef, 0xc6, 0xbc,
  0xa6, 0x3e, 0xec, 0x3c, 0x93, 0x12, 0x5e, 0xbc, 0xb2, 0xc1, 0x21, 0xbe,
  0x38, 0x5d, 0x69, 0x3e, 0xce, 0xbc, 0x4d, 0xbd, 0x88, 0x98, 0x5e, 0xbd,
  0xde, 0x77, 0x7b, 0x3e, 0xaf, 0x7b, 0x84, 0xbe, 0x18, 0x65, 0x92, 0x3b,
  0x94, 0x80, 0xb0, 0x3d, 0x80, 0x69, 0x04, 0xbe, 0x3b, 0x7b, 0x44, 0xbe,
  0xd1, 0x15, 0x43, 0xbd, 0x42, 0x5f, 0x0a, 0xbe, 0xf1, 0x7b, 0xef, 0x3d,
  0x38, 0xec, 0x83, 0x3b, 0x0b, 0x98, 0x8d, 0xbe, 0x4a, 0x86, 0x92, 0xbe,
  0xb2, 0x16, 0xa0, 0x3e, 0x3c, 0xfd, 0x9a, 0xbe, 0x49, 0x64, 0x7a, 0xbe,
  0xd7, 0xff, 0x79, 0x3e, 0x4f, 0x59, 0xcd, 0x3d, 0x89, 0xee, 0x00, 0xbe,
  0x88, 0x56, 0xda, 0xbc, 0x3a, 0xde, 0x9f, 0xbd, 0x99, 0x8e, 0xe1, 0xbb,
  0xfa, 0xdf, 0x8e, 0xbd, 0xcd, 0x14, 0xd7, 0xbd, 0x39, 0xa9, 0xc0, 0x3b,
  0x12, 0x16, 0xfd, 0x3d, 0x7f, 0x7c, 0x90, 0x3d, 0x16, 0x84, 0x79, 0x3e,
  0x91, 0x81, 0xe3, 0xbd, 0xe0, 0x68, 0xde, 0x3d, 0xb5, 0x65, 0x96, 0x3e,
  0x21, 0x77, 0xec, 0xbd, 0x62, 0xf2, 0x40, 0x3d, 0x9b, 0x52, 0x19, 0x3e,
  0xb6, 0x57, 0x30, 0xbd, 0xbc, 0xa7, 0x26, 0xbe, 0xe4, 0x55, 0x18, 0x3d,
  0x3a, 0xe6, 0x1b, 0xbe, 0xad, 0xb3, 0xa2, 0xbd, 0xfe, 0x01, 0xf6, 0xbd,
  0x73, 0xc6, 0xb3, 0xbe, 0x6f, 0x14, 0x69, 0xbd, 0x3d, 0x12, 0x24, 0x3d,
  0x71, 0x53, 0xb0, 0xbd, 0x35, 0xd7, 0x22, 0x3d, 0x07, 0x17, 0x5f, 0xbe,
  0xe4, 0xbb, 0x4c, 0xbc, 0x32, 0xb2, 0x5f, 0xbe, 0xda, 0x8a, 0x37, 0x3e,
  0xdd, 0x64, 0x80, 0x3e, 0xc0, 0x61, 0xb1, 0x3a, 0xde, 0xe9, 0xc7, 0xbe,
  0x27, 0x8c, 0x7b, 0x3e, 0x6a, 0x56, 0x8b, 0x3d, 0x7e, 0x48, 0xb8, 0xbd,
  0xfd, 0x3f, 0x16, 0xbe, 0x6d, 0x8e, 0x87, 0xbe, 0x76, 0xbe, 0xf4, 0x3d,
  0x7c, 0xe7, 0x35, 0x3e, 0xcd, 0x9a, 0xb6, 0xbd, 0x5a, 0xc3, 0x7c, 0x3d,
  0x1b, 0xb4, 0x53, 0x3e, 0xff, 0xfe, 0x9a, 0x3e, 0x4f, 0x8a, 0x86, 0x3e,
  0x0e, 0x3d, 0xc6, 0xbc, 0xb7, 0xa3, 0x82, 0xbd, 0x67, 0xfd, 0x79, 0x3d,
  0x37, 0xe8, 0x9a, 0xbd, 0xf2, 0xf2, 0x04, 0x3e, 0xd1, 0x7d, 0xa4, 0xbe,
  0x70, 0x90, 0x5f, 0x3d, 0x22, 0xe8, 0x3a, 0xbd, 0x43, 0xff, 0x95, 0x3e,
  0x39, 0x79, 0x3a, 0xbe, 0x5a, 0x04, 0x0a, 0x3d, 0xd2, 0x1e, 0x5d, 0x3d,
  0xc0, 0xa8, 0xbc, 0x3d, 0x7e, 0xd5, 0xff, 0xff, 0x04, 0x00, 0x00, 0x00,
  0x04, 0x00, 0x00, 0x00, 0x01, 0x00, 0x00, 0x00, 0x8e, 0xd5, 0xff, 0xff,
  0x04, 0x00, 0x00, 0x00, 0x08, 0x00, 0x00, 0x00, 0xff, 0xff, 0xff, 0xff,
  0x07, 0x00, 0x00, 0x00, 0xa2, 0xd5, 0xff, 0xff, 0x04, 0x00, 0x00, 0x00,
  0x80, 0x00, 0x00, 0x00, 0xad, 0x27, 0xf2, 0x3e, 0x08, 0x80, 0x7a, 0x3e,
  0x40, 0x6b, 0x33, 0xbf, 0xd1, 0x5f, 0x00, 0xbf, 0x4b, 0xea, 0xea, 0xbe,
  0xee, 0x3a, 0x9e, 0xbf, 0xa2, 0x20, 0xe7, 0xbd, 0x8d, 0x68, 0x97, 0x3d,
  0x00, 0x00, 0x80, 0x3f, 0x00, 0x00, 0x80, 0x3f, 0x00, 0x00, 0x80, 0x3f,
  0x00, 0x00, 0x80, 0x3f, 0x00, 0x00, 0x80, 0x3f, 0x00, 0x00, 0x80, 0x3f,
  0x00, 0x00, 0x80, 0x3f, 0x00, 0x00, 0x80, 0x3f, 0xec, 0x05, 0x6c, 0xbf,
  0x8f, 0x5c, 0x98, 0xbf, 0x14, 0x72, 0xf6, 0x3e, 0x09, 0x17, 0x0b, 0xbf,
  0xe9, 0xff, 0x01, 0x3f, 0xa7, 0x58, 0xce, 0x3b, 0xe3, 0x7d, 0xef, 0x3e,
  0x79, 0x66, 0x47, 0x3f, 0xcf, 0x0e, 0xba, 0x3e, 0xa1, 0xd2, 0x73, 0x3e,
  0x1c, 0xdb, 0x1a, 0xbf, 0xea, 0x62, 0x19, 0xbf, 0x84, 0xe4, 0xa3, 0xbe,
  0x9b, 0x42, 0x68, 0xbf, 0x1b, 0x30, 0x2d, 0xbe, 0xa2, 0x3e, 0xa6, 0x3f,
  0xec, 0xc4, 0xff, 0xff, 0xf0, 0xc4, 0xff, 0xff, 0xf4, 0xc4, 0xff, 0xff,
  0xf8, 0xc4, 0xff, 0xff, 0xfc, 0xc4, 0xff, 0xff, 0x00, 0xc5, 0xff, 0xff,
  0x04, 0xc5, 0xff, 0xff, 0x4a, 0xd6, 0xff, 0xff, 0x04, 0x00, 0x00, 0x00,
  0x04, 0x00, 0x00, 0x00, 0x01, 0x00, 0x00, 0x00, 0x18, 0xc5, 0xff, 0xff,
  0x1c, 0xc5, 0xff, 0xff, 0x20, 0xc5, 0xff, 0xff, 0x24, 0xc5, 0xff, 0xff,
  0x28, 0xc5, 0xff, 0xff, 0x2c, 0xc5, 0xff, 0xff, 0x30, 0xc5, 0xff, 0xff,
  0x34, 0xc5, 0xff, 0xff, 0x38, 0xc5, 0xff, 0xff, 0x3c, 0xc5, 0xff, 0xff,
  0x40, 0xc5, 0xff, 0xff, 0x44, 0xc5, 0xff, 0xff, 0x48, 0xc5, 0xff, 0xff,
  0x4c, 0xc5, 0xff, 0xff, 0x50, 0xc5, 0xff, 0xff, 0x54, 0xc5, 0xff, 0xff,
  0x58, 0xc5, 0xff, 0xff, 0x5c, 0xc5, 0xff, 0xff, 0x60, 0xc5, 0xff, 0xff,
  0x64, 0xc5, 0xff, 0xff, 0x68, 0xc5, 0xff, 0xff, 0x6c, 0xc5, 0xff, 0xff,
  0x70, 0xc5, 0xff, 0xff, 0x74, 0xc5, 0xff, 0xff, 0x78, 0xc5, 0xff, 0xff,
  0x7c, 0xc5, 0xff, 0xff, 0x80, 0xc5, 0xff, 0xff, 0x84, 0xc5, 0xff, 0xff,
  0x88, 0xc5, 0xff, 0xff, 0x8c, 0xc5, 0xff, 0xff, 0x90, 0xc5, 0xff, 0xff,
  0x94, 0xc5, 0xff, 0xff, 0x98, 0xc5, 0xff, 0xff, 0x9c, 0xc5, 0xff, 0xff,
  0xa0, 0xc5, 0xff, 0xff, 0xa4, 0xc5, 0xff, 0xff, 0xa8, 0xc5, 0xff, 0xff,
  0xac, 0xc5, 0xff, 0xff, 0xb0, 0xc5, 0xff, 0xff, 0xb4, 0xc5, 0xff, 0xff,
  0xfa, 0xd6, 0xff, 0xff, 0x04, 0x00, 0x00, 0x00, 0x0c, 0x00, 0x00, 0x00,
  0x01, 0x00, 0x00, 0x00, 0x01, 0x00, 0x00, 0x00, 0x01, 0x00, 0x00, 0x00,
  0x12, 0xd7, 0xff, 0xff, 0x04, 0x00, 0x00, 0x00, 0x0c, 0x00, 0x00, 0x00,
  0x00, 0x00, 0x00, 0x00, 0xff, 0xff, 0xff, 0xff, 0x04, 0x00, 0x00, 0x00,
  0x2a, 0xd7, 0xff, 0xff, 0x04, 0x00, 0x00, 0x00, 0x0c, 0x00, 0x00, 0x00,
  0xff, 0xff, 0xff, 0xff, 0x00, 0x00, 0x00, 0x00, 0x00, 0x00, 0x00, 0x00,
  0x42, 0xd7, 0xff, 0xff, 0x04, 0x00, 0x00, 0x00, 0x10, 0x00, 0x00, 0x00,
  0x52, 0xc1, 0x0d, 0xbd, 0xbc, 0x96, 0x85, 0xbf, 0x76, 0x1d, 0x45, 0x3d,
  0x1e, 0x77, 0x86, 0x3f, 0x5e, 0xd7, 0xff, 0xff, 0x04, 0x00, 0x00, 0x00,
  0x20, 0x00, 0x00, 0x00, 0xf4, 0x14, 0x87, 0xbe, 0x31, 0x4a, 0xc1, 0xbe,
  0x13, 0xcd, 0x2c, 0x3f, 0xf0, 0x0d, 0x30, 0xbf, 0x83, 0xc9, 0xe1, 0xbf,
  0x1c, 0x63, 0xc7, 0x3f, 0x39, 0x0d, 0xdb, 0xbf, 0x5f, 0x37, 0x00, 0xc0,
  0x8a, 0xd7, 0xff, 0xff, 0x04, 0x00, 0x00, 0x00, 0x08, 0x00, 0x00, 0x00,
  0xff, 0xff, 0xff, 0xff, 0x08, 0x00, 0x00, 0x00, 0x9e, 0xd7, 0xff, 0xff,
  0x04, 0x00, 0x00, 0x00, 0x08, 0x00, 0x00, 0x00, 0xff, 0xff, 0xff, 0xff,
  0x04, 0x00, 0x00, 0x00, 0x70, 0xc6, 0xff, 0xff, 0xb6, 0xd7, 0xff, 0xff,
  0x04, 0x00, 0x00, 0x00, 0x04, 0x00, 0x00, 0x00, 0x00, 0x00, 0x00, 0x00,
  0xc6, 0xd7, 0xff, 0xff, 0x04, 0x00, 0x00, 0x00, 0x04, 0x00, 0x00, 0x00,
  0x01, 0x00, 0x00, 0x00, 0xd6, 0xd7, 0xff, 0xff, 0x04, 0x00, 0x00, 0x00,
  0x0c, 0x00, 0x00, 0x00, 0x01, 0x00, 0x00, 0x00, 0x00, 0x00, 0x00, 0x00,
  0x02, 0x00, 0x00, 0x00, 0xee, 0xd7, 0xff, 0xff, 0x04, 0x00, 0x00, 0x00,
  0x04, 0x00, 0x00, 0x00, 0x00, 0x00, 0x00, 0x00, 0xfe, 0xd7, 0xff, 0xff,
  0x04, 0x00, 0x00, 0x00, 0x08, 0x00, 0x00, 0x00, 0xff, 0xff, 0xff, 0xff,
  0x07, 0x00, 0x00, 0x00, 0x12, 0xd8, 0xff, 0xff, 0x04, 0x00, 0x00, 0x00,
  0x04, 0x00, 0x00, 0x00, 0x08, 0x00, 0x00, 0x00, 0x22, 0xd8, 0xff, 0xff,
  0x04, 0x00, 0x00, 0x00, 0x04, 0x00, 0x00, 0x00, 0x00, 0x00, 0x00, 0x00,
  0x32, 0xd8, 0xff, 0xff, 0x04, 0x00, 0x00, 0x00, 0x04, 0x00, 0x00, 0x00,
  0x04, 0x00, 0x00, 0x00, 0x42, 0xd8, 0xff, 0xff, 0x04, 0x00, 0x00, 0x00,
  0x08, 0x00, 0x00, 0x00, 0xa2, 0xbe, 0x58, 0x40, 0xc7, 0xc3, 0x57, 0xc0,
  0x56, 0xd8, 0xff, 0xff, 0x04, 0x00, 0x00, 0x00, 0x08, 0x00, 0x00, 0x00,
  0x24, 0x48, 0x1c, 0xbe, 0xf0, 0x0c, 0x67, 0x3f, 0x6a, 0xd8, 0xff, 0xff,
  0x04, 0x00, 0x00, 0x00, 0x40, 0x00, 0x00, 0x00, 0x87, 0x9c, 0x1e, 0x3f,
  0x94, 0x4e, 0x27, 0x3f, 0xaa, 0xb8, 0xdc, 0x3e, 0x60, 0xf9, 0x08, 0x3f,
  0x00, 0x00, 0x80, 0x3f, 0x00, 0x00, 0x80, 0x3f, 0x00, 0x00, 0x80, 0x3f,
  0x00, 0x00, 0x80, 0x3f, 0x73, 0x43, 0xe7, 0xbe, 0xc7, 0xbd, 0xae, 0x3e,
  0x74, 0xc7, 0xee, 0xbd, 0x3c, 0x59, 0x83, 0xbe, 0x61, 0xaf, 0x19, 0x3f,
  0xa1, 0x8b, 0x0b, 0x3f, 0xb7, 0xdf, 0xcc, 0x3e, 0x85, 0x48, 0x06, 0x3f,
  0xb6, 0xd8, 0xff, 0xff, 0x04, 0x00, 0x00, 0x00, 0x80, 0x00, 0x00, 0x00,
  0xad, 0x27, 0xf2, 0x3e, 0x08, 0x80, 0x7a, 0x3e, 0x40, 0x6b, 0x33, 0xbf,
  0xd1, 0x5f, 0x00, 0xbf, 0x4b, 0xea, 0xea, 0xbe, 0xee, 0x3a, 0x9e, 0xbf,
  0xa2, 0x20, 0xe7, 0xbd, 0x8d, 0x68, 0x97, 0x3d, 0x00, 0x00, 0x80, 0x3f,
  0x00, 0x00, 0x80, 0x3f, 0x00, 0x00, 0x80, 0x3f, 0x00, 0x00, 0x80, 0x3f,
  0x00, 0x00, 0x80, 0x3f, 0x00, 0x00, 0x80, 0x3f, 0x00, 0x00, 0x80, 0x3f,
  0x00, 0x00, 0x80, 0x3f, 0xec, 0x05, 0x6c, 0xbf, 0x8f, 0x5c, 0x98, 0xbf,
  0x14, 0x72, 0xf6, 0x3e, 0x09, 0x17, 0x0b, 0xbf, 0xe9, 0xff, 0x01, 0x3f,
  0xa7, 0x58, 0xce, 0x3b, 0xe3, 0x7d, 0xef, 0x3e, 0x79, 0x66, 0x47, 0x3f,
  0xcf, 0x0e, 0xba, 0x3e, 0xa1, 0xd2, 0x73, 0x3e, 0x1c, 0xdb, 0x1a, 0xbf,
  0xea, 0x62, 0x19, 0xbf, 0x84, 0xe4, 0xa3, 0xbe, 0x9b, 0x42, 0x68, 0xbf,
  0x1b, 0x30, 0x2d, 0xbe, 0xa2, 0x3e, 0xa6, 0x3f, 0x00, 0xc8, 0xff, 0xff,
  0x04, 0xc8, 0xff, 0xff, 0x0f, 0x00, 0x00, 0x00, 0x4d, 0x4c, 0x49, 0x52,
  0x20, 0x43, 0x6f, 0x6e, 0x76, 0x65, 0x72, 0x74, 0x65, 0x64, 0x2e, 0x00,
  0x05, 0x00, 0x00, 0x00, 0x78, 0x1f, 0x00, 0x00, 0x34, 0x1d, 0x00, 0x00,
  0xf8, 0x0f, 0x00, 0x00, 0xc8, 0x0d, 0x00, 0x00, 0x04, 0x00, 0x00, 0x00,
  0xaa, 0xe0, 0xff, 0xff, 0x14, 0x00, 0x00, 0x00, 0x20, 0x00, 0x00, 0x00,
  0x30, 0x04, 0x00, 0x00, 0x4c, 0x04, 0x00, 0x00, 0x68, 0x04, 0x00, 0x00,
  0x0b, 0x00, 0x00, 0x00, 0x77, 0x68, 0x69, 0x6c, 0x65, 0x31, 0x5f, 0x62,
  0x6f, 0x64, 0x79, 0x00, 0x12, 0x00, 0x00, 0x00, 0xe0, 0x03, 0x00, 0x00,
  0xa8, 0x03, 0x00, 0x00, 0x24, 0x03, 0x00, 0x00, 0xec, 0x02, 0x00, 0x00,
  0xb8, 0x02, 0x00, 0x00, 0x84, 0x02, 0x00, 0x00, 0x40, 0x02, 0x00, 0x00,
  0x1c, 0x02, 0x00, 0x00, 0xf8, 0x01, 0x00, 0x00, 0xc4, 0x01, 0x00, 0x00,
  0xa0, 0x01, 0x00, 0x00, 0x7c, 0x01, 0x00, 0x00, 0x48, 0x01, 0x00, 0x00,
  0x14, 0x01, 0x00, 0x00, 0xf0, 0x00, 0x00, 0x00, 0xbc, 0x00, 0x00, 0x00,
  0x38, 0x00, 0x00, 0x00, 0x04, 0x00, 0x00, 0x00, 0xc6, 0xd9, 0xff, 0xff,
  0x14, 0x00, 0x00, 0x00, 0x00, 0x00, 0x00, 0x0b, 0x10, 0x00, 0x00, 0x00,
  0x14, 0x00, 0x00, 0x00, 0x0b, 0x00, 0x00, 0x00, 0xc0, 0xc8, 0xff, 0xff,
  0x01, 0x00, 0x00, 0x00, 0x21, 0x00, 0x00, 0x00, 0x02, 0x00, 0x00, 0x00,
  0x00, 0x00, 0x00, 0x00, 0x0a, 0x00, 0x00, 0x00, 0x24, 0xdb, 0xff, 0xff,
  0x10, 0x00, 0x00, 0x00, 0x60, 0x00, 0x00, 0x00, 0x64, 0x00, 0x00, 0x00,
  0x11, 0x00, 0x00, 0x00, 0x4d, 0x00, 0x00, 0x00, 0x11, 0x54, 0x65, 0x6e,
  0x73, 0x6f, 0x72, 0x4c, 0x69, 0x73, 0x74, 0x53, 0x65, 0x74, 0x49, 0x74,
  0x65, 0x6d, 0x00, 0x30, 0x12, 0x11, 0x54, 0x65, 0x6e, 0x73, 0x6f, 0x72,
  0x4c, 0x69, 0x73, 0x74, 0x53, 0x65, 0x74, 0x49, 0x74, 0x65, 0x6d, 0x1a,
  0x00, 0x1a, 0x00, 0x1a, 0x00, 0x2a, 0x13, 0x0a, 0x0d, 0x65, 0x6c, 0x65,
  0x6d, 0x65, 0x6e, 0x74, 0x5f, 0x64, 0x74, 0x79, 0x70, 0x65, 0x12, 0x02,
  0x30, 0x01, 0x32, 0x00, 0x00, 0x02, 0x45, 0x33, 0x14, 0x14, 0x04, 0x28,
  0x01, 0x00, 0x00, 0x00, 0x01, 0x00, 0x00, 0x00, 0x20, 0x00, 0x00, 0x00,
  0x03, 0x00, 0x00, 0x00, 0x02, 0x00, 0x00, 0x00, 0x07, 0x00, 0x00, 0x00,
  0x1f, 0x00, 0x00, 0x00, 0x76, 0xda, 0xff, 0xff, 0x14, 0x00, 0x00, 0x00,
  0x00, 0x00, 0x00, 0x15, 0x10, 0x00, 0x00, 0x00, 0x14, 0x00, 0x00, 0x00,
  0x0f, 0x00, 0x00, 0x00, 0x70, 0xc9, 0xff, 0xff, 0x01, 0x00, 0x00, 0x00,
  0x1f, 0x00, 0x00, 0x00, 0x02, 0x00, 0x00, 0x00, 0x1a, 0x00, 0x00, 0x00,
  0x1e, 0x00, 0x00, 0x00, 0x12, 0xdb, 0xff, 0xff, 0x0c, 0x00, 0x00, 0x00,
  0x10, 0x00, 0x00, 0x00, 0x10, 0x00, 0x00, 0x00, 0x01, 0x00, 0x00, 0x00,
  0x1e, 0x00, 0x00, 0x00, 0x01, 0x00, 0x00, 0x00, 0x1d, 0x00, 0x00, 0x00,
  0xc6, 0xda, 0xff, 0xff, 0x14, 0x00, 0x00, 0x00, 0x00, 0x00, 0x00, 0x0b,
  0x10, 0x00, 0x00, 0x00, 0x14, 0x00, 0x00, 0x00, 0x0b, 0x00, 0x00, 0x00,
  0xc0, 0xc9, 0xff, 0xff, 0x01, 0x00, 0x00, 0x00, 0x1d, 0x00, 0x00, 0x00,
  0x02, 0x00, 0x00, 0x00, 0x19, 0x00, 0x00, 0x00, 0x1c, 0x00, 0x00, 0x00,
  0xf6, 0xda, 0xff, 0xff, 0x14, 0x00, 0x00, 0x00, 0x00, 0x00, 0x00, 0x15,
  0x10, 0x00, 0x00, 0x00, 0x14, 0x00, 0x00, 0x00, 0x0f, 0x00, 0x00, 0x00,
  0xf0, 0xc9, 0xff, 0xff, 0x01, 0x00, 0x00, 0x00, 0x1c, 0x00, 0x00, 0x00,
  0x02, 0x00, 0x00, 0x00, 0x17, 0x00, 0x00, 0x00, 0x1b, 0x00, 0x00, 0x00,
  0x92, 0xdb, 0xff, 0xff, 0x0c, 0x00, 0x00, 0x00, 0x10, 0x00, 0x00, 0x00,
  0x10, 0x00, 0x00, 0x00, 0x01, 0x00, 0x00, 0x00, 0x1b, 0x00, 0x00, 0x00,
  0x01, 0x00, 0x00, 0x00, 0x15, 0x00, 0x00, 0x00, 0xb2, 0xdb, 0xff, 0xff,
  0x0c, 0x00, 0x00, 0x00, 0x10, 0x00, 0x00, 0x00, 0x0e, 0x00, 0x00, 0x00,
  0x01, 0x00, 0x00, 0x00, 0x1a, 0x00, 0x00, 0x00, 0x01, 0x00, 0x00, 0x00,
  0x16, 0x00, 0x00, 0x00, 0x66, 0xdb, 0xff, 0xff, 0x14, 0x00, 0x00, 0x00,
  0x00, 0x00, 0x00, 0x15, 0x10, 0x00, 0x00, 0x00, 0x14, 0x00, 0x00, 0x00,
  0x0f, 0x00, 0x00, 0x00, 0x60, 0xca, 0xff, 0xff, 0x01, 0x00, 0x00, 0x00,
  0x19, 0x00, 0x00, 0x00, 0x02, 0x00, 0x00, 0x00, 0x18, 0x00, 0x00, 0x00,
  0x04, 0x00, 0x00, 0x00, 0x02, 0xdc, 0xff, 0xff, 0x0c, 0x00, 0x00, 0x00,
  0x10, 0x00, 0x00, 0x00, 0x0e, 0x00, 0x00, 0x00, 0x01, 0x00, 0x00, 0x00,
  0x18, 0x00, 0x00, 0x00, 0x01, 0x00, 0x00, 0x00, 0x14, 0x00, 0x00, 0x00,
  0x22, 0xdc, 0xff, 0xff, 0x0c, 0x00, 0x00, 0x00, 0x10, 0x00, 0x00, 0x00,
  0x0e, 0x00, 0x00, 0x00, 0x01, 0x00, 0x00, 0x00, 0x17, 0x00, 0x00, 0x00,
  0x01, 0x00, 0x00, 0x00, 0x13, 0x00, 0x00, 0x00, 0xd6, 0xdb, 0xff, 0xff,
  0x14, 0x00, 0x00, 0x00, 0x00, 0x00, 0x00, 0x23, 0x14, 0x00, 0x00, 0x00,
  0x24, 0x00, 0x00, 0x00, 0x0d, 0x00, 0x00, 0x00, 0x12, 0xdc, 0xff, 0xff,
  0x04, 0x00, 0x00, 0x00, 0x04, 0x00, 0x00, 0x00, 0x13, 0x00, 0x00, 0x00,
  0x14, 0x00, 0x00, 0x00, 0x15, 0x00, 0x00, 0x00, 0x16, 0x00, 0x00, 0x00,
  0x02, 0x00, 0x00, 0x00, 0x0a, 0x00, 0x00, 0x00, 0x12, 0x00, 0x00, 0x00,
  0x16, 0xdc, 0xff, 0xff, 0x14, 0x00, 0x00, 0x00, 0x00, 0x00, 0x00, 0x0b,
  0x10, 0x00, 0x00, 0x00, 0x14, 0x00, 0x00, 0x00, 0x0b, 0x00, 0x00, 0x00,
  0x10, 0xcb, 0xff, 0xff, 0x01, 0x00, 0x00, 0x00, 0x12, 0x00, 0x00, 0x00,
  0x02, 0x00, 0x00, 0x00, 0x11, 0x00, 0x00, 0x00, 0x08, 0x00, 0x00, 0x00,
  0x46, 0xdc, 0xff, 0xff, 0x14, 0x00, 0x00, 0x00, 0x00, 0x00, 0x00, 0x0b,
  0x10, 0x00, 0x00, 0x00, 0x14, 0x00, 0x00, 0x00, 0x0b, 0x00, 0x00, 0x00,
  0x40, 0xcb, 0xff, 0xff, 0x01, 0x00, 0x00, 0x00, 0x11, 0x00, 0x00, 0x00,
  0x02, 0x00, 0x00, 0x00, 0x10, 0x00, 0x00, 0x00, 0x0e, 0x00, 0x00, 0x00,
  0x76, 0xdc, 0xff, 0xff, 0x14, 0x00, 0x00, 0x00, 0x00, 0x00, 0x00, 0x08,
  0x10, 0x00, 0x00, 0x00, 0x14, 0x00, 0x00, 0x00, 0x09, 0x00, 0x00, 0x00,
  0x70, 0xcb, 0xff, 0xff, 0x01, 0x00, 0x00, 0x00, 0x10, 0x00, 0x00, 0x00,
  0x03, 0x00, 0x00, 0x00, 0x0f, 0x00, 0x00, 0x00, 0x0c, 0x00, 0x00, 0x00,
  0xff, 0xff, 0xff, 0xff, 0xd8, 0xdd, 0xff, 0xff, 0x10, 0x00, 0x00, 0x00,
  0x60, 0x00, 0x00, 0x00, 0x64, 0x00, 0x00, 0x00, 0x0c, 0x00, 0x00, 0x00,
  0x4d, 0x00, 0x00, 0x00, 0x11, 0x54, 0x65, 0x6e, 0x73, 0x6f, 0x72, 0x4c,
  0x69, 0x73, 0x74, 0x47, 0x65, 0x74, 0x49, 0x74, 0x65, 0x6d, 0x00, 0x30,
  0x12, 0x11, 0x54, 0x65, 0x6e, 0x73, 0x6f, 0x72, 0x4c, 0x69, 0x73, 0x74,
  0x47, 0x65, 0x74, 0x49, 0x74, 0x65, 0x6d, 0x1a, 0x00, 0x1a, 0x00, 0x1a,
  0x00, 0x2a, 0x13, 0x0a, 0x0d, 0x65, 0x6c, 0x65, 0x6d, 0x65, 0x6e, 0x74,
  0x5f, 0x64, 0x74, 0x79, 0x70, 0x65, 0x12, 0x02, 0x30, 0x01, 0x32, 0x00,
  0x00, 0x02, 0x45, 0x33, 0x14, 0x14, 0x04, 0x28, 0x01, 0x00, 0x00, 0x00,
  0x01, 0x00, 0x00, 0x00, 0x0f, 0x00, 0x00, 0x00, 0x03, 0x00, 0x00, 0x00,
  0x06, 0x00, 0x00, 0x00, 0x01, 0x00, 0x00, 0x00, 0x09, 0x00, 0x00, 0x00,
  0x2a, 0xdd, 0xff, 0xff, 0x14, 0x00, 0x00, 0x00, 0x00, 0x00, 0x00, 0x08,
  0x10, 0x00, 0x00, 0x00, 0x14, 0x00, 0x00, 0x00, 0x09, 0x00, 0x00, 0x00,
  0x24, 0xcc, 0xff, 0xff, 0x01, 0x00, 0x00, 0x00, 0x0e, 0x00, 0x00, 0x00,
  0x03, 0x00, 0x00, 0x00, 0x03, 0x00, 0x00, 0x00, 0x0b, 0x00, 0x00, 0x00,
  0xff, 0xff, 0xff, 0xff, 0x5e, 0xdd, 0xff, 0xff, 0x14, 0x00, 0x00, 0x00,
  0x00, 0x00, 0x00, 0x0b, 0x10, 0x00, 0x00, 0x00, 0x14, 0x00, 0x00, 0x00,
  0x0b, 0x00, 0x00, 0x00, 0x58, 0xcc, 0xff, 0xff, 0x01, 0x00, 0x00, 0x00,
  0x0d, 0x00, 0x00, 0x00, 0x02, 0x00, 0x00, 0x00, 0x01, 0x00, 0x00, 0x00,
  0x0a, 0x00, 0x00, 0x00, 0x07, 0x00, 0x00, 0x00, 0x21, 0x00, 0x00, 0x00,
  0x0d, 0x00, 0x00, 0x00, 0x20, 0x00, 0x00, 0x00, 0x1f, 0x00, 0x00, 0x00,
  0x1d, 0x00, 0x00, 0x00, 0x05, 0x00, 0x00, 0x00, 0x06, 0x00, 0x00, 0x00,
  0x07, 0x00, 0x00, 0x00, 0x00, 0x00, 0x00, 0x00, 0x01, 0x00, 0x00, 0x00,
  0x02, 0x00, 0x00, 0x00, 0x03, 0x00, 0x00, 0x00, 0x04, 0x00, 0x00, 0x00,
  0x05, 0x00, 0x00, 0x00, 0x06, 0x00, 0x00, 0x00, 0x22, 0x00, 0x00, 0x00,
  0x14, 0x09, 0x00, 0x00, 0xe4, 0x08, 0x00, 0x00, 0xb4, 0x08, 0x00, 0x00,
  0x70, 0x08, 0x00, 0x00, 0x2c, 0x08, 0x00, 0x00, 0xfc, 0x07, 0x00, 0x00,
  0xcc, 0x07, 0x00, 0x00, 0x9c, 0x07, 0x00, 0x00, 0x48, 0x07, 0x00, 0x00,
  0xe8, 0x06, 0x00, 0x00, 0xb0, 0x06, 0x00, 0x00, 0x74, 0x06, 0x00, 0x00,
  0x38, 0x06, 0x00, 0x00, 0x00, 0x06, 0x00, 0x00, 0xb4, 0x05, 0x00, 0x00,
  0x4c, 0x05, 0x00, 0x00, 0x00, 0x05, 0x00, 0x00, 0xb8, 0x04, 0x00, 0x00,
  0x6c, 0x04, 0x00, 0x00, 0x20, 0x04, 0x00, 0x00, 0xd4, 0x03, 0x00, 0x00,
  0x88, 0x03, 0x00, 0x00, 0x3c, 0x03, 0x00, 0x00, 0xf0, 0x02, 0x00, 0x00,
  0xa0, 0x02, 0x00, 0x00, 0x58, 0x02, 0x00, 0x00, 0x08, 0x02, 0x00, 0x00,
  0xc0, 0x01, 0x00, 0x00, 0x74, 0x01, 0x00, 0x00, 0x28, 0x01, 0x00, 0x00,
  0xdc, 0x00, 0x00, 0x00, 0x90, 0x00, 0x00, 0x00, 0x3c, 0x00, 0x00, 0x00,
  0x04, 0x00, 0x00, 0x00, 0x1a, 0xd0, 0xff, 0xff, 0x14, 0x00, 0x00, 0x00,
  0x14, 0x00, 0x00, 0x00, 0x89, 0x00, 0x00, 0x00, 0x00, 0x00, 0x00, 0x02,
  0x1c, 0x00, 0x00, 0x00, 0x54, 0xcd, 0xff, 0xff, 0x0c, 0x00, 0x00, 0x00,
  0x77, 0x68, 0x69, 0x6c, 0x65, 0x2f, 0x61, 0x64, 0x64, 0x5f, 0x33, 0x31,
  0x00, 0x00, 0x00, 0x00, 0x00, 0x00, 0x00, 0x00, 0x4e, 0xd0, 0xff, 0xff,
  0x14, 0x00, 0x00, 0x00, 0x14, 0x00, 0x00, 0x00, 0x88, 0x00, 0x00, 0x00,
  0x00, 0x00, 0x00, 0x0e, 0x38, 0x00, 0x00, 0x00, 0x88, 0xcd, 0xff, 0xff,
  0x2b, 0x00, 0x00, 0x00, 0x77, 0x68, 0x69, 0x6c, 0x65, 0x2f, 0x54, 0x65,
  0x6e, 0x73, 0x6f, 0x72, 0x41, 0x72, 0x72, 0x61, 0x79, 0x56, 0x32, 0x57,
  0x72, 0x69, 0x74, 0x65, 0x2f, 0x54, 0x65, 0x6e, 0x73, 0x6f, 0x72, 0x4c,
  0x69, 0x73, 0x74, 0x53, 0x65, 0x74, 0x49, 0x74, 0x65, 0x6d, 0x31, 0x00,
  0x00, 0x00, 0x00, 0x00, 0x04, 0xcf, 0xff, 0xff, 0x14, 0x00, 0x00, 0x00,
  0x1c, 0x00, 0x00, 0x00, 0x1c, 0x00, 0x00, 0x00, 0x87, 0x00, 0x00, 0x00,
  0x28, 0x00, 0x00, 0x00, 0x02, 0x00, 0x00, 0x00, 0xff, 0xff, 0xff, 0xff,
  0x04, 0x00, 0x00, 0x00, 0xe4, 0xcd, 0xff, 0xff, 0x0c, 0x00, 0x00, 0x00,
  0x77, 0x68, 0x69, 0x6c, 0x65, 0x2f, 0x6d, 0x75, 0x6c, 0x5f, 0x32, 0x31,
  0x00, 0x00, 0x00, 0x00, 0x02, 0x00, 0x00, 0x00, 0x01, 0x00, 0x00, 0x00,
  0x04, 0x00, 0x00, 0x00, 0x4c, 0xcf, 0xff, 0xff, 0x14, 0x00, 0x00, 0x00,
  0x1c, 0x00, 0x00, 0x00, 0x1c, 0x00, 0x00, 0x00, 0x86, 0x00, 0x00, 0x00,
  0x28, 0x00, 0x00, 0x00, 0x02, 0x00, 0x00, 0x00, 0xff, 0xff, 0xff, 0xff,
  0x04, 0x00, 0x00, 0x00, 0x2c, 0xce, 0xff, 0xff, 0x0d, 0x00, 0x00, 0x00,
  0x77, 0x68, 0x69, 0x6c, 0x65, 0x2f, 0x54, 0x61, 0x6e, 0x68, 0x5f, 0x31,
  0x31, 0x00, 0x00, 0x00, 0x02, 0x00, 0x00, 0x00, 0x01, 0x00, 0x00, 0x00,
  0x04, 0x00, 0x00, 0x00, 0x94, 0xcf, 0xff, 0xff, 0x14, 0x00, 0x00, 0x00,
  0x1c, 0x00, 0x00, 0x00, 0x1c, 0x00, 0x00, 0x00, 0x85, 0x00, 0x00, 0x00,
  0x28, 0x00, 0x00, 0x00, 0x02, 0x00, 0x00, 0x00, 0xff, 0xff, 0xff, 0xff,
  0x04, 0x00, 0x00, 0x00, 0x74, 0xce, 0xff, 0xff, 0x0c, 0x00, 0x00, 0x00,
  0x77, 0x68, 0x69, 0x6c, 0x65, 0x2f, 0x61, 0x64, 0x64, 0x5f, 0x31, 0x31,
  0x00, 0x00, 0x00, 0x00, 0x02, 0x00, 0x00, 0x00, 0x01, 0x00, 0x00, 0x00,
  0x04, 0x00, 0x00, 0x00, 0xdc, 0xcf, 0xff, 0xff, 0x14, 0x00, 0x00, 0x00,
  0x1c, 0x00, 0x00, 0x00, 0x1c, 0x00, 0x00, 0x00, 0x84, 0x00, 0x00, 0x00,
  0x28, 0x00, 0x00, 0x00, 0x02, 0x00, 0x00, 0x00, 0xff, 0xff, 0xff, 0xff,
  0x04, 0x00, 0x00, 0x00, 0xbc, 0xce, 0xff, 0xff, 0x0c, 0x00, 0x00, 0x00,
  0x77, 0x68, 0x69, 0x6c, 0x65, 0x2f, 0x6d, 0x75, 0x6c, 0x5f, 0x31, 0x31,
  0x00, 0x00, 0x00, 0x00, 0x02, 0x00, 0x00, 0x00, 0x01, 0x00, 0x00, 0x00,
  0x04, 0x00, 0x00, 0x00, 0x24, 0xd0, 0xff, 0xff, 0x14, 0x00, 0x00, 0x00,
  0x1c, 0x00, 0x00, 0x00, 0x1c, 0x00, 0x00, 0x00, 0x83, 0x00, 0x00, 0x00,
  0x24, 0x00, 0x00, 0x00, 0x02, 0x00, 0x00, 0x00, 0xff, 0xff, 0xff, 0xff,
  0x04, 0x00, 0x00, 0x00, 0x04, 0xcf, 0xff, 0xff, 0x0b, 0x00, 0x00, 0x00,
  0x77, 0x68, 0x69, 0x6c, 0x65, 0x2f, 0x54, 0x61, 0x6e, 0x68, 0x31, 0x00,
  0x02, 0x00, 0x00, 0x00, 0x01, 0x00, 0x00, 0x00, 0x04, 0x00, 0x00, 0x00,
  0x68, 0xd0, 0xff, 0xff, 0x14, 0x00, 0x00, 0x00, 0x1c, 0x00, 0x00, 0x00,
  0x1c, 0x00, 0x00, 0x00, 0x82, 0x00, 0x00, 0x00, 0x2c, 0x00, 0x00, 0x00,
  0x02, 0x00, 0x00, 0x00, 0xff, 0xff, 0xff, 0xff, 0x04, 0x00, 0x00, 0x00,
  0x48, 0xcf, 0xff, 0xff, 0x10, 0x00, 0x00, 0x00, 0x77, 0x68, 0x69, 0x6c,
  0x65, 0x2f, 0x53, 0x69, 0x67, 0x6d, 0x6f, 0x69, 0x64, 0x5f, 0x32, 0x31,
  0x00, 0x00, 0x00, 0x00, 0x02, 0x00, 0x00, 0x00, 0x01, 0x00, 0x00, 0x00,
  0x04, 0x00, 0x00, 0x00, 0xb4, 0xd0, 0xff, 0xff, 0x14, 0x00, 0x00, 0x00,
  0x1c, 0x00, 0x00, 0x00, 0x1c, 0x00, 0x00, 0x00, 0x81, 0x00, 0x00, 0x00,
  0x24, 0x00, 0x00, 0x00, 0x02, 0x00, 0x00, 0x00, 0xff, 0xff, 0xff, 0xff,
  0x04, 0x00, 0x00, 0x00, 0x94, 0xcf, 0xff, 0xff, 0x0a, 0x00, 0x00, 0x00,
  0x77, 0x68, 0x69, 0x6c, 0x65, 0x2f, 0x6d, 0x75, 0x6c, 0x31, 0x00, 0x00,
  0x02, 0x00, 0x00, 0x00, 0x01, 0x00, 0x00, 0x00, 0x04, 0x00, 0x00, 0x00,
  0xf8, 0xd0, 0xff, 0xff, 0x14, 0x00, 0x00, 0x00, 0x1c, 0x00, 0x00, 0x00,
  0x1c, 0x00, 0x00, 0x00, 0x80, 0x00, 0x00, 0x00, 0x2c, 0x00, 0x00, 0x00,
  0x02, 0x00, 0x00, 0x00, 0xff, 0xff, 0xff, 0xff, 0x04, 0x00, 0x00, 0x00,
  0xd8, 0xcf, 0xff, 0xff, 0x10, 0x00, 0x00, 0x00, 0x77, 0x68, 0x69, 0x6c,
  0x65, 0x2f, 0x53, 0x69, 0x67, 0x6d, 0x6f, 0x69, 0x64, 0x5f, 0x31, 0x31,
  0x00, 0x00, 0x00, 0x00, 0x02, 0x00, 0x00, 0x00, 0x01, 0x00, 0x00, 0x00,
  0x04, 0x00, 0x00, 0x00, 0x44, 0xd1, 0xff, 0xff, 0x14, 0x00, 0x00, 0x00,
  0x1c, 0x00, 0x00, 0x00, 0x1c, 0x00, 0x00, 0x00, 0x7f, 0x00, 0x00, 0x00,
  0x28, 0x00, 0x00, 0x00, 0x02, 0x00, 0x00, 0x00, 0xff, 0xff, 0xff, 0xff,
  0x04, 0x00, 0x00, 0x00, 0x24, 0xd0, 0xff, 0xff, 0x0e, 0x00, 0x00, 0x00,
  0x77, 0x68, 0x69, 0x6c, 0x65, 0x2f, 0x53, 0x69, 0x67, 0x6d, 0x6f, 0x69,
  0x64, 0x31, 0x00, 0x00, 0x02, 0x00, 0x00, 0x00, 0x01, 0x00, 0x00, 0x00,
  0x04, 0x00, 0x00, 0x00, 0x8c, 0xd1, 0xff, 0xff, 0x14, 0x00, 0x00, 0x00,
  0x1c, 0x00, 0x00, 0x00, 0x1c, 0x00, 0x00, 0x00, 0x7e, 0x00, 0x00, 0x00,
  0x28, 0x00, 0x00, 0x00, 0x02, 0x00, 0x00, 0x00, 0xff, 0xff, 0xff, 0xff,
  0x04, 0x00, 0x00, 0x00, 0x6c, 0xd0, 0xff, 0xff, 0x0c, 0x00, 0x00, 0x00,
  0x77, 0x68, 0x69, 0x6c, 0x65, 0x2f, 0x73, 0x70, 0x6c, 0x69, 0x74, 0x37,
  0x00, 0x00, 0x00, 0x00, 0x02, 0x00, 0x00, 0x00, 0x01, 0x00, 0x00, 0x00,
  0x04, 0x00, 0x00, 0x00, 0xd4, 0xd1, 0xff, 0xff, 0x14, 0x00, 0x00, 0x00,
  0x1c, 0x00, 0x00, 0x00, 0x1c, 0x00, 0x00, 0x00, 0x7d, 0x00, 0x00, 0x00,
  0x28, 0x00, 0x00, 0x00, 0x02, 0x00, 0x00, 0x00, 0xff, 0xff, 0xff, 0xff,
  0x04, 0x00, 0x00, 0x00, 0xb4, 0xd0, 0xff, 0xff, 0x0c, 0x00, 0x00, 0x00,
  0x77, 0x68, 0x69, 0x6c, 0x65, 0x2f, 0x73, 0x70, 0x6c, 0x69, 0x74, 0x36,
  0x00, 0x00, 0x00, 0x00, 0x02, 0x00, 0x00, 0x00, 0x01, 0x00, 0x00, 0x00,
  0x04, 0x00, 0x00, 0x00, 0x1c, 0xd2, 0xff, 0xff, 0x14, 0x00, 0x00, 0x00,
  0x1c, 0x00, 0x00, 0x00, 0x1c, 0x00, 0x00, 0x00, 0x7c, 0x00, 0x00, 0x00,
  0x28, 0x00, 0x00, 0x00, 0x02, 0x00, 0x00, 0x00, 0xff, 0xff, 0xff, 0xff,
  0x04, 0x00, 0x00, 0x00, 0xfc, 0xd0, 0xff, 0xff, 0x0c, 0x00, 0x00, 0x00,
  0x77, 0x68, 0x69, 0x6c, 0x65, 0x2f, 0x73, 0x70, 0x6c, 0x69, 0x74, 0x35,
  0x00, 0x00, 0x00, 0x00, 0x02, 0x00, 0x00, 0x00, 0x01, 0x00, 0x00, 0x00,
  0x04, 0x00, 0x00, 0x00, 0x64, 0xd2, 0xff, 0xff, 0x14, 0x00, 0x00, 0x00,
  0x1c, 0x00, 0x00, 0x00, 0x1c, 0x00, 0x00, 0x00, 0x7b, 0x00, 0x00, 0x00,
  0x28, 0x00, 0x00, 0x00, 0x02, 0x00, 0x00, 0x00, 0xff, 0xff, 0xff, 0xff,
  0x04, 0x00, 0x00, 0x00, 0x44, 0xd1, 0xff, 0xff, 0x0c, 0x00, 0x00, 0x00,
  0x77, 0x68, 0x69, 0x6c, 0x65, 0x2f, 0x73, 0x70, 0x6c, 0x69, 0x74, 0x34,
  0x00, 0x00, 0x00, 0x00, 0x02, 0x00, 0x00, 0x00, 0x01, 0x00, 0x00, 0x00,
  0x04, 0x00, 0x00, 0x00, 0xac, 0xd2, 0xff, 0xff, 0x14, 0x00, 0x00, 0x00,
  0x1c, 0x00, 0x00, 0x00, 0x1c, 0x00, 0x00, 0x00, 0x7a, 0x00, 0x00, 0x00,
  0x28, 0x00, 0x00, 0x00, 0x02, 0x00, 0x00, 0x00, 0xff, 0xff, 0xff, 0xff,
  0x10, 0x00, 0x00, 0x00, 0x8c, 0xd1, 0xff, 0xff, 0x0e, 0x00, 0x00, 0x00,
  0x77, 0x68, 0x69, 0x6c, 0x65, 0x2f, 0x42, 0x69, 0x61, 0x73, 0x41, 0x64,
  0x64, 0x31, 0x00, 0x00, 0x02, 0x00, 0x00, 0x00, 0x01, 0x00, 0x00, 0x00,
  0x10, 0x00, 0x00, 0x00, 0xf4, 0xd2, 0xff, 0xff, 0x14, 0x00, 0x00, 0x00,
  0x1c, 0x00, 0x00, 0x00, 0x1c, 0x00, 0x00, 0x00, 0x79, 0x00, 0x00, 0x00,
  0x24, 0x00, 0x00, 0x00, 0x02, 0x00, 0x00, 0x00, 0xff, 0xff, 0xff, 0xff,
  0x10, 0x00, 0x00, 0x00, 0xd4, 0xd1, 0xff, 0xff, 0x0a, 0x00, 0x00, 0x00,
  0x77, 0x68, 0x69, 0x6c, 0x65, 0x2f, 0x61, 0x64, 0x64, 0x31, 0x00, 0x00,
  0x02, 0x00, 0x00, 0x00, 0x01, 0x00, 0x00, 0x00, 0x10, 0x00, 0x00, 0x00,
  0x38, 0xd3, 0xff, 0xff, 0x14, 0x00, 0x00, 0x00, 0x1c, 0x00, 0x00, 0x00,
  0x1c, 0x00, 0x00, 0x00, 0x78, 0x00, 0x00, 0x00, 0x28, 0x00, 0x00, 0x00,
  0x02, 0x00, 0x00, 0x00, 0xff, 0xff, 0xff, 0xff, 0x10, 0x00, 0x00, 0x00,
  0x18, 0xd2, 0xff, 0xff, 0x0d, 0x00, 0x00, 0x00, 0x77, 0x68, 0x69, 0x6c,
  0x65, 0x2f, 0x4d, 0x61, 0x74, 0x4d, 0x75, 0x6c, 0x35, 0x00, 0x00, 0x00,
  0x02, 0x00, 0x00, 0x00, 0x01, 0x00, 0x00, 0x00, 0x10, 0x00, 0x00, 0x00,
  0x80, 0xd3, 0xff, 0xff, 0x14, 0x00, 0x00, 0x00, 0x1c, 0x00, 0x00, 0x00,
  0x1c, 0x00, 0x00, 0x00, 0x77, 0x00, 0x00, 0x00, 0x44, 0x00, 0x00, 0x00,
  0x02, 0x00, 0x00, 0x00, 0xff, 0xff, 0xff, 0xff, 0x08, 0x00, 0x00, 0x00,
  0x60, 0xd2, 0xff, 0xff, 0x2a, 0x00, 0x00, 0x00, 0x77, 0x68, 0x69, 0x6c,
  0x65, 0x2f, 0x54, 0x65, 0x6e, 0x73, 0x6f, 0x72, 0x41, 0x72, 0x72, 0x61,
  0x79, 0x56, 0x32, 0x52, 0x65, 0x61, 0x64, 0x2f, 0x54, 0x65, 0x6e, 0x73,
  0x6f, 0x72, 0x4c, 0x69, 0x73, 0x74, 0x47, 0x65, 0x74, 0x49, 0x74, 0x65,
  0x6d, 0x31, 0x00, 0x00, 0x02, 0x00, 0x00, 0x00, 0x01, 0x00, 0x00, 0x00,
  0x08, 0x00, 0x00, 0x00, 0xe4, 0xd3, 0xff, 0xff, 0x14, 0x00, 0x00, 0x00,
  0x1c, 0x00, 0x00, 0x00, 0x1c, 0x00, 0x00, 0x00, 0x76, 0x00, 0x00, 0x00,
  0x28, 0x00, 0x00, 0x00, 0x02, 0x00, 0x00, 0x00, 0xff, 0xff, 0xff, 0xff,
  0x10, 0x00, 0x00, 0x00, 0xc4, 0xd2, 0xff, 0xff, 0x0f, 0x00, 0x00, 0x00,
  0x77, 0x68, 0x69, 0x6c, 0x65, 0x2f, 0x4d, 0x61, 0x74, 0x4d, 0x75, 0x6c,
  0x5f, 0x31, 0x33, 0x00, 0x02, 0x00, 0x00, 0x00, 0x01, 0x00, 0x00, 0x00,
  0x10, 0x00, 0x00, 0x00, 0xc6, 0xd5, 0xff, 0xff, 0x14, 0x00, 0x00, 0x00,
  0x14, 0x00, 0x00, 0x00, 0x75, 0x00, 0x00, 0x00, 0x00, 0x00, 0x00, 0x02,
  0x1c, 0x00, 0x00, 0x00, 0x00, 0xd3, 0xff, 0xff, 0x0c, 0x00, 0x00, 0x00,
  0x77, 0x68, 0x69, 0x6c, 0x65, 0x2f, 0x61, 0x64, 0x64, 0x5f, 0x32, 0x31,
  0x00, 0x00, 0x00, 0x00, 0x00, 0x00, 0x00, 0x00, 0xba, 0xd4, 0xff, 0xff,
  0x10, 0x00, 0x00, 0x00, 0x10, 0x00, 0x00, 0x00, 0x74, 0x00, 0x00, 0x00,
  0x1c, 0x00, 0x00, 0x00, 0x30, 0xd3, 0xff, 0xff, 0x0d, 0x00, 0x00, 0x00,
  0x77, 0x68, 0x69, 0x6c, 0x65, 0x2f, 0x4d, 0x61, 0x74, 0x4d, 0x75, 0x6c,
  0x33, 0x00, 0x00, 0x00, 0x02, 0x00, 0x00, 0x00, 0x10, 0x00, 0x00, 0x00,
  0x08, 0x00, 0x00, 0x00, 0xf2, 0xd4, 0xff, 0xff, 0x10, 0x00, 0x00, 0x00,
  0x10, 0x00, 0x00, 0x00, 0x73, 0x00, 0x00, 0x00, 0x1c, 0x00, 0x00, 0x00,
  0x68, 0xd3, 0xff, 0xff, 0x0f, 0x00, 0x00, 0x00, 0x77, 0x68, 0x69, 0x6c,
  0x65, 0x2f, 0x4d, 0x61, 0x74, 0x4d, 0x75, 0x6c, 0x5f, 0x31, 0x32, 0x00,
  0x02, 0x00, 0x00, 0x00, 0x10, 0x00, 0x00, 0x00, 0x04, 0x00, 0x00, 0x00,
  0x6a, 0xd6, 0xff, 0xff, 0x14, 0x00, 0x00, 0x00, 0x14, 0x00, 0x00, 0x00,
  0x72, 0x00, 0x00, 0x00, 0x00, 0x00, 0x00, 0x02, 0x1c, 0x00, 0x00, 0x00,
  0xa4, 0xd3, 0xff, 0xff, 0x0e, 0x00, 0x00, 0x00, 0x73, 0x74, 0x72, 0x69,
  0x64, 0x65, 0x64, 0x5f, 0x73, 0x6c, 0x69, 0x63, 0x65, 0x34, 0x00, 0x00,
  0x00, 0x00, 0x00, 0x00, 0x9e, 0xd6, 0xff, 0xff, 0x14, 0x00, 0x00, 0x00,
  0x14, 0x00, 0x00, 0x00, 0x71, 0x00, 0x00, 0x00, 0x00, 0x00, 0x00, 0x02,
  0x40, 0x00, 0x00, 0x00, 0xd8, 0xd3, 0xff, 0xff, 0x31, 0x00, 0x00, 0x00,
  0x54, 0x65, 0x6e, 0x73, 0x6f, 0x72, 0x41, 0x72, 0x72, 0x61, 0x79, 0x56,
  0x32, 0x53, 0x74, 0x61, 0x63, 0x6b, 0x2f, 0x54, 0x65, 0x6e, 0x73, 0x6f,
  0x72, 0x4c, 0x69, 0x73, 0x74, 0x53, 0x74, 0x61, 0x63, 0x6b, 0x2f, 0x65,
  0x6c, 0x65, 0x6d, 0x65, 0x6e, 0x74, 0x5f, 0x73, 0x68, 0x61, 0x70, 0x65,
  0x32, 0x00, 0x00, 0x00, 0x01, 0x00, 0x00, 0x00, 0x02, 0x00, 0x00, 0x00,
  0xba, 0xd5, 0xff, 0xff, 0x10, 0x00, 0x00, 0x00, 0x10, 0x00, 0x00, 0x00,
  0x70, 0x00, 0x00, 0x00, 0x38, 0x00, 0x00, 0x00, 0x30, 0xd4, 0xff, 0xff,
  0x28, 0x00, 0x00, 0x00, 0x73, 0x65, 0x71, 0x75, 0x65, 0x6e, 0x74, 0x69,
  0x61, 0x6c, 0x2f, 0x6c, 0x73, 0x74, 0x6d, 0x5f, 0x31, 0x2f, 0x52, 0x65,
  0x61, 0x64, 0x5f, 0x32, 0x2f, 0x52, 0x65, 0x61, 0x64, 0x56, 0x61, 0x72,
  0x69, 0x61, 0x62, 0x6c, 0x65, 0x4f, 0x70, 0x31, 0x00, 0x00, 0x00, 0x00,
  0x01, 0x00, 0x00, 0x00, 0x10, 0x00, 0x00, 0x00, 0x4a, 0xd7, 0xff, 0xff,
  0x14, 0x00, 0x00, 0x00, 0x14, 0x00, 0x00, 0x00, 0x6f, 0x00, 0x00, 0x00,
  0x00, 0x00, 0x00, 0x02, 0x14, 0x00, 0x00, 0x00, 0x84, 0xd4, 0xff, 0xff,
  0x05, 0x00, 0x00, 0x00, 0x74, 0x69, 0x6d, 0x65, 0x31, 0x00, 0x00, 0x00,
  0x00, 0x00, 0x00, 0x00, 0x76, 0xd7, 0xff, 0xff, 0x14, 0x00, 0x00, 0x00,
  0x14, 0x00, 0x00, 0x00, 0x6e, 0x00, 0x00, 0x00, 0x00, 0x00, 0x00, 0x0e,
  0x14, 0x00, 0x00, 0x00, 0xb0, 0xd4, 0xff, 0xff, 0x04, 0x00, 0x00, 0x00,
  0x61, 0x72, 0x67, 0x36, 0x00, 0x00, 0x00, 0x00, 0x00, 0x00, 0x00, 0x00,
  0xa2, 0xd7, 0xff, 0xff, 0x14, 0x00, 0x00, 0x00, 0x14, 0x00, 0x00, 0x00,
  0x6d, 0x00, 0x00, 0x00, 0x00, 0x00, 0x00, 0x02, 0x14, 0x00, 0x00, 0x00,
  0xdc, 0xd4, 0xff, 0xff, 0x04, 0x00, 0x00, 0x00, 0x61, 0x72, 0x67, 0x35,
  0x00, 0x00, 0x00, 0x00, 0x00, 0x00, 0x00, 0x00, 0x34, 0xd6, 0xff, 0xff,
  0x14, 0x00, 0x00, 0x00, 0x1c, 0x00, 0x00, 0x00, 0x1c, 0x00, 0x00, 0x00,
  0x6c, 0x00, 0x00, 0x00, 0x20, 0x00, 0x00, 0x00, 0x02, 0x00, 0x00, 0x00,
  0xff, 0xff, 0xff, 0xff, 0x04, 0x00, 0x00, 0x00, 0x14, 0xd5, 0xff, 0xff,
  0x04, 0x00, 0x00, 0x00, 0x61, 0x72, 0x67, 0x34, 0x00, 0x00, 0x00, 0x00,
  0x02, 0x00, 0x00, 0x00, 0x01, 0x00, 0x00, 0x00, 0x04, 0x00, 0x00, 0x00,
  0x74, 0xd6, 0xff, 0xff, 0x14, 0x00, 0x00, 0x00, 0x1c, 0x00, 0x00, 0x00,
  0x1c, 0x00, 0x00, 0x00, 0x6b, 0x00, 0x00, 0x00, 0x20, 0x00, 0x00, 0x00,
  0x02, 0x00, 0x00, 0x00, 0xff, 0xff, 0xff, 0xff, 0x04, 0x00, 0x00, 0x00,
  0x54, 0xd5, 0xff, 0xff, 0x04, 0x00, 0x00, 0x00, 0x61, 0x72, 0x67, 0x33,
  0x00, 0x00, 0x00, 0x00, 0x02, 0x00, 0x00, 0x00, 0x01, 0x00, 0x00, 0x00,
  0x04, 0x00, 0x00, 0x00, 0x4e, 0xd8, 0xff, 0xff, 0x14, 0x00, 0x00, 0x00,
  0x14, 0x00, 0x00, 0x00, 0x6a, 0x00, 0x00, 0x00, 0x00, 0x00, 0x00, 0x0e,
  0x14, 0x00, 0x00, 0x00, 0x88, 0xd5, 0xff, 0xff, 0x04, 0x00, 0x00, 0x00,
  0x61, 0x72, 0x67, 0x32, 0x00, 0x00, 0x00, 0x00, 0x00, 0x00, 0x00, 0x00,
  0x7a, 0xd8, 0xff, 0xff, 0x14, 0x00, 0x00, 0x00, 0x14, 0x00, 0x00, 0x00,
  0x69, 0x00, 0x00, 0x00, 0x00, 0x00, 0x00, 0x02, 0x14, 0x00, 0x00, 0x00,
  0xb4, 0xd5, 0xff, 0xff, 0x04, 0x00, 0x00, 0x00, 0x61, 0x72, 0x67, 0x31,
  0x00, 0x00, 0x00, 0x00, 0x00, 0x00, 0x00, 0x00, 0xa6, 0xd8, 0xff, 0xff,
  0x14, 0x00, 0x00, 0x00, 0x14, 0x00, 0x00, 0x00, 0x68, 0x00, 0x00, 0x00,
  0x00, 0x00, 0x00, 0x02, 0x14, 0x00, 0x00, 0x00, 0xe0, 0xd5, 0xff, 0xff,
  0x04, 0x00, 0x00, 0x00, 0x61, 0x72, 0x67, 0x30, 0x00, 0x00, 0x00, 0x00,
  0x00, 0x00, 0x00, 0x00, 0x6a, 0xee, 0xff, 0xff, 0x14, 0x00, 0x00, 0x00,
  0x20, 0x00, 0x00, 0x00, 0x48, 0x00, 0x00, 0x00, 0x4c, 0x00, 0x00, 0x00,
  0x68, 0x00, 0x00, 0x00, 0x0b, 0x00, 0x00, 0x00, 0x77, 0x68, 0x69, 0x6c,
  0x65, 0x31, 0x5f, 0x63, 0x6f, 0x6e, 0x64, 0x00, 0x01, 0x00, 0x00, 0x00,
  0x04, 0x00, 0x00, 0x00, 0xae, 0xe7, 0xff, 0xff, 0x0c, 0x00, 0x00, 0x00,
  0x10, 0x00, 0x00, 0x00, 0x0a, 0x00, 0x00, 0x00, 0x01, 0x00, 0x00, 0x00,
  0x07, 0x00, 0x00, 0x00, 0x02, 0x00, 0x00, 0x00, 0x01, 0x00, 0x00, 0x00,
  0x05, 0x00, 0x00, 0x00, 0x01, 0x00, 0x00, 0x00, 0x07, 0x00, 0x00, 0x00,
  0x07, 0x00, 0x00, 0x00, 0x00, 0x00, 0x00, 0x00, 0x01, 0x00, 0x00, 0x00,
  0x02, 0x00, 0x00, 0x00, 0x03, 0x00, 0x00, 0x00, 0x04, 0x00, 0x00, 0x00,
  0x05, 0x00, 0x00, 0x00, 0x06, 0x00, 0x00, 0x00, 0x08, 0x00, 0x00, 0x00,
  0x80, 0x01, 0x00, 0x00, 0x50, 0x01, 0x00, 0x00, 0x20, 0x01, 0x00, 0x00,
  0xdc, 0x00, 0x00, 0x00, 0x98, 0x00, 0x00, 0x00, 0x68, 0x00, 0x00, 0x00,
  0x38, 0x00, 0x00, 0x00, 0x04, 0x00, 0x00, 0x00, 0x72, 0xd9, 0xff, 0xff,
  0x14, 0x00, 0x00, 0x00, 0x14, 0x00, 0x00, 0x00, 0x67, 0x00, 0x00, 0x00,
  0x00, 0x00, 0x00, 0x06, 0x18, 0x00, 0x00, 0x00, 0xac, 0xd6, 0xff, 0xff,
  0x0b, 0x00, 0x00, 0x00, 0x77, 0x68, 0x69, 0x6c, 0x65, 0x2f, 0x4c, 0x65,
  0x73, 0x73, 0x31, 0x00, 0x00, 0x00, 0x00, 0x00, 0xa2, 0xd9, 0xff, 0xff,
  0x14, 0x00, 0x00, 0x00, 0x14, 0x00, 0x00, 0x00, 0x66, 0x00, 0x00, 0x00,
  0x00, 0x00, 0x00, 0x0e, 0x14, 0x00, 0x00, 0x00, 0xdc, 0xd6, 0xff, 0xff,
  0x04, 0x00, 0x00, 0x00, 0x61, 0x72, 0x67, 0x36, 0x00, 0x00, 0x00, 0x00,
  0x00, 0x00, 0x00, 0x00, 0xce, 0xd9, 0xff, 0xff, 0x14, 0x00, 0x00, 0x00,
  0x14, 0x00, 0x00, 0x00, 0x65, 0x00, 0x00, 0x00, 0x00, 0x00, 0x00, 0x02,
  0x14, 0x00, 0x00, 0x00, 0x08, 0xd7, 0xff, 0xff, 0x04, 0x00, 0x00, 0x00,
  0x61, 0x72, 0x67, 0x35, 0x00, 0x00, 0x00, 0x00, 0x00, 0x00, 0x00, 0x00,
  0x60, 0xd8, 0xff, 0xff, 0x14, 0x00, 0x00, 0x00, 0x1c, 0x00, 0x00, 0x00,
  0x1c, 0x00, 0x00, 0x00, 0x64, 0x00, 0x00, 0x00, 0x20, 0x00, 0x00, 0x00,
  0x02, 0x00, 0x00, 0x00, 0xff, 0xff, 0xff, 0xff, 0x04, 0x00, 0x00, 0x00,
  0x40, 0xd7, 0xff, 0xff, 0x04, 0x00, 0x00, 0x00, 0x61, 0x72, 0x67, 0x34,
  0x00, 0x00, 0x00, 0x00, 0x02, 0x00, 0x00, 0x00, 0x01, 0x00, 0x00, 0x00,
  0x04, 0x00, 0x00, 0x00, 0xa0, 0xd8, 0xff, 0xff, 0x14, 0x00, 0x00, 0x00,
  0x1c, 0x00, 0x00, 0x00, 0x1c, 0x00, 0x00, 0x00, 0x63, 0x00, 0x00, 0x00,
  0x20, 0x00, 0x00, 0x00, 0x02, 0x00, 0x00, 0x00, 0xff, 0xff, 0xff, 0xff,
  0x04, 0x00, 0x00, 0x00, 0x80, 0xd7, 0xff, 0xff, 0x04, 0x00, 0x00, 0x00,
  0x61, 0x72, 0x67, 0x33, 0x00, 0x00, 0x00, 0x00, 0x02, 0x00, 0x00, 0x00,
  0x01, 0x00, 0x00, 0x00, 0x04, 0x00, 0x00, 0x00, 0x7a, 0xda, 0xff, 0xff,
  0x14, 0x00, 0x00, 0x00, 0x14, 0x00, 0x00, 0x00, 0x62, 0x00, 0x00, 0x00,
  0x00, 0x00, 0x00, 0x0e, 0x14, 0x00, 0x00, 0x00, 0xb4, 0xd7, 0xff, 0xff,
  0x04, 0x00, 0x00, 0x00, 0x61, 0x72, 0x67, 0x32, 0x00, 0x00, 0x00, 0x00,
  0x00, 0x00, 0x00, 0x00, 0xa6, 0xda, 0xff, 0xff, 0x14, 0x00, 0x00, 0x00,
  0x14, 0x00, 0x00, 0x00, 0x61, 0x00, 0x00, 0x00, 0x00, 0x00, 0x00, 0x02,
  0x14, 0x00, 0x00, 0x00, 0xe0, 0xd7, 0xff, 0xff, 0x04, 0x00, 0x00, 0x00,
  0x61, 0x72, 0x67, 0x31, 0x00, 0x00, 0x00, 0x00, 0x00, 0x00, 0x00, 0x00,
  0xd2, 0xda, 0xff, 0xff, 0x14, 0x00, 0x00, 0x00, 0x14, 0x00, 0x00, 0x00,
  0x60, 0x00, 0x00, 0x00, 0x00, 0x00, 0x00, 0x02, 0x14, 0x00, 0x00, 0x00,
  0x0c, 0xd8, 0xff, 0xff, 0x04, 0x00, 0x00, 0x00, 0x61, 0x72, 0x67, 0x30,
  0x00, 0x00, 0x00, 0x00, 0x00, 0x00, 0x00, 0x00, 0x96, 0xf0, 0xff, 0xff,
  0x14, 0x00, 0x00, 0x00, 0x20, 0x00, 0x00, 0x00, 0x30, 0x04, 0x00, 0x00,
  0x48, 0x04, 0x00, 0x00, 0x60, 0x04, 0x00, 0x00, 0x0a, 0x00, 0x00, 0x00,
  0x77, 0x68, 0x69, 0x6c, 0x65, 0x5f, 0x62, 0x6f, 0x64, 0x79, 0x00, 0x00,
  0x12, 0x00, 0x00, 0x00, 0xe0, 0x03, 0x00, 0x00, 0xa8, 0x03, 0x00, 0x00,
  0x24, 0x03, 0x00, 0x00, 0xec, 0x02, 0x00, 0x00, 0xb8, 0x02, 0x00, 0x00,
  0x84, 0x02, 0x00, 0x00, 0x40, 0x02, 0x00, 0x00, 0x1c, 0x02, 0x00, 0x00,
  0xf8, 0x01, 0x00, 0x00, 0xc4, 0x01, 0x00, 0x00, 0xa0, 0x01, 0x00, 0x00,
  0x7c, 0x01, 0x00, 0x00, 0x48, 0x01, 0x00, 0x00, 0x14, 0x01, 0x00, 0x00,
  0xf0, 0x00, 0x00, 0x00, 0xbc, 0x00, 0x00, 0x00, 0x38, 0x00, 0x00, 0x00,
  0x04, 0x00, 0x00, 0x00, 0xb2, 0xe9, 0xff, 0xff, 0x14, 0x00, 0x00, 0x00,
  0x00, 0x00, 0x00, 0x0b, 0x10, 0x00, 0x00, 0x00, 0x14, 0x00, 0x00, 0x00,
  0x0b, 0x00, 0x00, 0x00, 0xac, 0xd8, 0xff, 0xff, 0x01, 0x00, 0x00, 0x00,
  0x1f, 0x00, 0x00, 0x00, 0x02, 0x00, 0x00, 0x00, 0x00, 0x00, 0x00, 0x00,
  0x08, 0x00, 0x00, 0x00, 0x10, 0xeb, 0xff, 0xff, 0x10, 0x00, 0x00, 0x00,
  0x60, 0x00, 0x00, 0x00, 0x64, 0x00, 0x00, 0x00, 0x11, 0x00, 0x00, 0x00,
  0x4d, 0x00, 0x00, 0x00, 0x11, 0x54, 0x65, 0x6e, 0x73, 0x6f, 0x72, 0x4c,
  0x69, 0x73, 0x74, 0x53, 0x65, 0x74, 0x49, 0x74, 0x65, 0x6d, 0x00, 0x30,
  0x12, 0x11, 0x54, 0x65, 0x6e, 0x73, 0x6f, 0x72, 0x4c, 0x69, 0x73, 0x74,
  0x53, 0x65, 0x74, 0x49, 0x74, 0x65, 0x6d, 0x1a, 0x00, 0x1a, 0x00, 0x1a,
  0x00, 0x2a, 0x13, 0x0a, 0x0d, 0x65, 0x6c, 0x65, 0x6d, 0x65, 0x6e, 0x74,
  0x5f, 0x64, 0x74, 0x79, 0x70, 0x65, 0x12, 0x02, 0x30, 0x01, 0x32, 0x00,
  0x00, 0x02, 0x45, 0x33, 0x14, 0x14, 0x04, 0x28, 0x01, 0x00, 0x00, 0x00,
  0x01, 0x00, 0x00, 0x00, 0x1e, 0x00, 0x00, 0x00, 0x03, 0x00, 0x00, 0x00,
  0x02, 0x00, 0x00, 0x00, 0x01, 0x00, 0x00, 0x00, 0x1d, 0x00, 0x00, 0x00,
  0x62, 0xea, 0xff, 0xff, 0x14, 0x00, 0x00, 0x00, 0x00, 0x00, 0x00, 0x15,
  0x10, 0x00, 0x00, 0x00, 0x14, 0x00, 0x00, 0x00, 0x0f, 0x00, 0x00, 0x00,
  0x5c, 0xd9, 0xff, 0xff, 0x01, 0x00, 0x00, 0x00, 0x1d, 0x00, 0x00, 0x00,
  0x02, 0x00, 0x00, 0x00, 0x18, 0x00, 0x00, 0x00, 0x1c, 0x00, 0x00, 0x00,
  0xfe, 0xea, 0xff, 0xff, 0x0c, 0x00, 0x00, 0x00, 0x10, 0x00, 0x00, 0x00,
  0x10, 0x00, 0x00, 0x00, 0x01, 0x00, 0x00, 0x00, 0x1c, 0x00, 0x00, 0x00,
  0x01, 0x00, 0x00, 0x00, 0x1b, 0x00, 0x00, 0x00, 0xb2, 0xea, 0xff, 0xff,
  0x14, 0x00, 0x00, 0x00, 0x00, 0x00, 0x00, 0x0b, 0x10, 0x00, 0x00, 0x00,
  0x14, 0x00, 0x00, 0x00, 0x0b, 0x00, 0x00, 0x00, 0xac, 0xd9, 0xff, 0xff,
  0x01, 0x00, 0x00, 0x00, 0x1b, 0x00, 0x00, 0x00, 0x02, 0x00, 0x00, 0x00,
  0x17, 0x00, 0x00, 0x00, 0x1a, 0x00, 0x00, 0x00, 0xe2, 0xea, 0xff, 0xff,
  0x14, 0x00, 0x00, 0x00, 0x00, 0x00, 0x00, 0x15, 0x10, 0x00, 0x00, 0x00,
  0x14, 0x00, 0x00, 0x00, 0x0f, 0x00, 0x00, 0x00, 0xdc, 0xd9, 0xff, 0xff,
  0x01, 0x00, 0x00, 0x00, 0x1a, 0x00, 0x00, 0x00, 0x02, 0x00, 0x00, 0x00,
  0x15, 0x00, 0x00, 0x00, 0x19, 0x00, 0x00, 0x00, 0x7e, 0xeb, 0xff, 0xff,
  0x0c, 0x00, 0x00, 0x00, 0x10, 0x00, 0x00, 0x00, 0x10, 0x00, 0x00, 0x00,
  0x01, 0x00, 0x00, 0x00, 0x19, 0x00, 0x00, 0x00, 0x01, 0x00, 0x00, 0x00,
  0x13, 0x00, 0x00, 0x00, 0x9e, 0xeb, 0xff, 0xff, 0x0c, 0x00, 0x00, 0x00,
  0x10, 0x00, 0x00, 0x00, 0x0e, 0x00, 0x00, 0x00, 0x01, 0x00, 0x00, 0x00,
  0x18, 0x00, 0x00, 0x00, 0x01, 0x00, 0x00, 0x00, 0x14, 0x00, 0x00, 0x00,
  0x52, 0xeb, 0xff, 0xff, 0x14, 0x00, 0x00, 0x00, 0x00, 0x00, 0x00, 0x15,
  0x10, 0x00, 0x00, 0x00, 0x14, 0x00, 0x00, 0x00, 0x0f, 0x00, 0x00, 0x00,
  0x4c, 0xda, 0xff, 0xff, 0x01, 0x00, 0x00, 0x00, 0x17, 0x00, 0x00, 0x00,
  0x02, 0x00, 0x00, 0x00, 0x16, 0x00, 0x00, 0x00, 0x04, 0x00, 0x00, 0x00,
  0xee, 0xeb, 0xff, 0xff, 0x0c, 0x00, 0x00, 0x00, 0x10, 0x00, 0x00, 0x00,
  0x0e, 0x00, 0x00, 0x00, 0x01, 0x00, 0x00, 0x00, 0x16, 0x00, 0x00, 0x00,
  0x01, 0x00, 0x00, 0x00, 0x12, 0x00, 0x00, 0x00, 0x0e, 0xec, 0xff, 0xff,
  0x0c, 0x00, 0x00, 0x00, 0x10, 0x00, 0x00, 0x00, 0x0e, 0x00, 0x00, 0x00,
  0x01, 0x00, 0x00, 0x00, 0x15, 0x00, 0x00, 0x00, 0x01, 0x00, 0x00, 0x00,
  0x11, 0x00, 0x00, 0x00, 0xc2, 0xeb, 0xff, 0xff, 0x14, 0x00, 0x00, 0x00,
  0x00, 0x00, 0x00, 0x23, 0x14, 0x00, 0x00, 0x00, 0x24, 0x00, 0x00, 0x00,
  0x0d, 0x00, 0x00, 0x00, 0xfe, 0xeb, 0xff, 0xff, 0x04, 0x00, 0x00, 0x00,
  0x04, 0x00, 0x00, 0x00, 0x11, 0x00, 0x00, 0x00, 0x12, 0x00, 0x00, 0x00,
  0x13, 0x00, 0x00, 0x00, 0x14, 0x00, 0x00, 0x00, 0x02, 0x00, 0x00, 0x00,
  0x08, 0x00, 0x00, 0x00, 0x10, 0x00, 0x00, 0x00, 0x02, 0xec, 0xff, 0xff,
  0x14, 0x00, 0x00, 0x00, 0x00, 0x00, 0x00, 0x0b, 0x10, 0x00, 0x00, 0x00,
  0x14, 0x00, 0x00, 0x00, 0x0b, 0x00, 0x00, 0x00, 0xfc, 0xda, 0xff, 0xff,
  0x01, 0x00, 0x00, 0x00, 0x10, 0x00, 0x00, 0x00, 0x02, 0x00, 0x00, 0x00,
  0x0f, 0x00, 0x00, 0x00, 0x06, 0x00, 0x00, 0x00, 0x32, 0xec, 0xff, 0xff,
  0x14, 0x00, 0x00, 0x00, 0x00, 0x00, 0x00, 0x0b, 0x10, 0x00, 0x00, 0x00,
  0x14, 0x00, 0x00, 0x00, 0x0b, 0x00, 0x00, 0x00, 0x2c, 0xdb, 0xff, 0xff,
  0x01, 0x00, 0x00, 0x00, 0x0f, 0x00, 0x00, 0x00, 0x02, 0x00, 0x00, 0x00,
  0x0e, 0x00, 0x00, 0x00, 0x0c, 0x00, 0x00, 0x00, 0x62, 0xec, 0xff, 0xff,
  0x14, 0x00, 0x00, 0x00, 0x00, 0x00, 0x00, 0x08, 0x10, 0x00, 0x00, 0x00,
  0x14, 0x00, 0x00, 0x00, 0x09, 0x00, 0x00, 0x00, 0x5c, 0xdb, 0xff, 0xff,
  0x01, 0x00, 0x00, 0x00, 0x0e, 0x00, 0x00, 0x00, 0x03, 0x00, 0x00, 0x00,
  0x0d, 0x00, 0x00, 0x00, 0x0a, 0x00, 0x00, 0x00, 0xff, 0xff, 0xff, 0xff,
  0xc4, 0xed, 0xff, 0xff, 0x10, 0x00, 0x00, 0x00, 0x60, 0x00, 0x00, 0x00,
  0x64, 0x00, 0x00, 0x00, 0x0c, 0x00, 0x00, 0x00, 0x4d, 0x00, 0x00, 0x00,
  0x11, 0x54, 0x65, 0x6e, 0x73, 0x6f, 0x72, 0x4c, 0x69, 0x73, 0x74, 0x47,
  0x65, 0x74, 0x49, 0x74, 0x65, 0x6d, 0x00, 0x30, 0x12, 0x11, 0x54, 0x65,
  0x6e, 0x73, 0x6f, 0x72, 0x4c, 0x69, 0x73, 0x74, 0x47, 0x65, 0x74, 0x49,
  0x74, 0x65, 0x6d, 0x1a, 0x00, 0x1a, 0x00, 0x1a, 0x00, 0x2a, 0x13, 0x0a,
  0x0d, 0x65, 0x6c, 0x65, 0x6d, 0x65, 0x6e, 0x74, 0x5f, 0x64, 0x74, 0x79,
  0x70, 0x65, 0x12, 0x02, 0x30, 0x01, 0x32, 0x00, 0x00, 0x02, 0x45, 0x33,
  0x14, 0x14, 0x04, 0x28, 0x01, 0x00, 0x00, 0x00, 0x01, 0x00, 0x00, 0x00,
  0x0d, 0x00, 0x00, 0x00, 0x03, 0x00, 0x00, 0x00, 0x05, 0x00, 0x00, 0x00,
  0x01, 0x00, 0x00, 0x00, 0x07, 0x00, 0x00, 0x00, 0x16, 0xed, 0xff, 0xff,
  0x14, 0x00, 0x00, 0x00, 0x00, 0x00, 0x00, 0x08, 0x10, 0x00, 0x00, 0x00,
  0x14, 0x00, 0x00, 0x00, 0x09, 0x00, 0x00, 0x00, 0x10, 0xdc, 0xff, 0xff,
  0x01, 0x00, 0x00, 0x00, 0x0c, 0x00, 0x00, 0x00, 0x03, 0x00, 0x00, 0x00,
  0x03, 0x00, 0x00, 0x00, 0x09, 0x00, 0x00, 0x00, 0xff, 0xff, 0xff, 0xff,
  0x4a, 0xed, 0xff, 0xff, 0x14, 0x00, 0x00, 0x00, 0x00, 0x00, 0x00, 0x0b,
  0x10, 0x00, 0x00, 0x00, 0x14, 0x00, 0x00, 0x00, 0x0b, 0x00, 0x00, 0x00,
  0x44, 0xdc, 0xff, 0xff, 0x01, 0x00, 0x00, 0x00, 0x0b, 0x00, 0x00, 0x00,
  0x02, 0x00, 0x00, 0x00, 0x01, 0x00, 0x00, 0x00, 0x08, 0x00, 0x00, 0x00,
  0x06, 0x00, 0x00, 0x00, 0x1f, 0x00, 0x00, 0x00, 0x0b, 0x00, 0x00, 0x00,
  0x1e, 0x00, 0x00, 0x00, 0x1d, 0x00, 0x00, 0x00, 0x1b, 0x00, 0x00, 0x00,
  0x05, 0x00, 0x00, 0x00, 0x06, 0x00, 0x00, 0x00, 0x00, 0x00, 0x00, 0x00,
  0x01, 0x00, 0x00, 0x00, 0x02, 0x00, 0x00, 0x00, 0x03, 0x00, 0x00, 0x00,
  0x04, 0x00, 0x00, 0x00, 0x05, 0x00, 0x00, 0x00, 0x20, 0x00, 0x00, 0x00,
  0x94, 0x08, 0x00, 0x00, 0x64, 0x08, 0x00, 0x00, 0x34, 0x08, 0x00, 0x00,
  0xf0, 0x07, 0x00, 0x00, 0xac, 0x07, 0x00, 0x00, 0x7c, 0x07, 0x00, 0x00,
  0x2c, 0x07, 0x00, 0x00, 0xc8, 0x06, 0x00, 0x00, 0x90, 0x06, 0x00, 0x00,
  0x54, 0x06, 0x00, 0x00, 0x18, 0x06, 0x00, 0x00, 0xe4, 0x05, 0x00, 0x00,
  0x98, 0x05, 0x00, 0x00, 0x30, 0x05, 0x00, 0x00, 0xe4, 0x04, 0x00, 0x00,
  0x9c, 0x04, 0x00, 0x00, 0x50, 0x04, 0x00, 0x00, 0x08, 0x04, 0x00, 0x00,
  0xbc, 0x03, 0x00, 0x00, 0x70, 0x03, 0x00, 0x00, 0x24, 0x03, 0x00, 0x00,
  0xd8, 0x02, 0x00, 0x00, 0x8c, 0x02, 0x00, 0x00, 0x44, 0x02, 0x00, 0x00,
  0xf8, 0x01, 0x00, 0x00, 0xb0, 0x01, 0x00, 0x00, 0x68, 0x01, 0x00, 0x00,
  0x20, 0x01, 0x00, 0x00, 0xd4, 0x00, 0x00, 0x00, 0x8c, 0x00, 0x00, 0x00,
  0x38, 0x00, 0x00, 0x00, 0x04, 0x00, 0x00, 0x00, 0xf6, 0xdf, 0xff, 0xff,
  0x14, 0x00, 0x00, 0x00, 0x14, 0x00, 0x00, 0x00, 0x5f, 0x00, 0x00, 0x00,
  0x00, 0x00, 0x00, 0x02, 0x18, 0x00, 0x00, 0x00, 0x30, 0xdd, 0xff, 0xff,
  0x0b, 0x00, 0x00, 0x00, 0x77, 0x68, 0x69, 0x6c, 0x65, 0x2f, 0x61, 0x64,
  0x64, 0x5f, 0x33, 0x00, 0x00, 0x00, 0x00, 0x00, 0x26, 0xe0, 0xff, 0xff,
  0x14, 0x00, 0x00, 0x00, 0x14, 0x00, 0x00, 0x00, 0x5e, 0x00, 0x00, 0x00,
  0x00, 0x00, 0x00, 0x0e, 0x38, 0x00, 0x00, 0x00, 0x60, 0xdd, 0xff, 0xff,
  0x2a, 0x00, 0x00, 0x00, 0x77, 0x68, 0x69, 0x6c, 0x65, 0x2f, 0x54, 0x65,
  0x6e, 0x73, 0x6f, 0x72, 0x41, 0x72, 0x72, 0x61, 0x79, 0x56, 0x32, 0x57,
  0x72, 0x69, 0x74, 0x65, 0x2f, 0x54, 0x65, 0x6e, 0x73, 0x6f, 0x72, 0x4c,
  0x69, 0x73, 0x74, 0x53, 0x65, 0x74, 0x49, 0x74, 0x65, 0x6d, 0x00, 0x00,
  0x00, 0x00, 0x00, 0x00, 0xdc, 0xde, 0xff, 0xff, 0x14, 0x00, 0x00, 0x00,
  0x1c, 0x00, 0x00, 0x00, 0x1c, 0x00, 0x00, 0x00, 0x5d, 0x00, 0x00, 0x00,
  0x24, 0x00, 0x00, 0x00, 0x02, 0x00, 0x00, 0x00, 0xff, 0xff, 0xff, 0xff,
  0x08, 0x00, 0x00, 0x00, 0xbc, 0xdd, 0xff, 0xff, 0x0b, 0x00, 0x00, 0x00,
  0x77, 0x68, 0x69, 0x6c, 0x65, 0x2f, 0x6d, 0x75, 0x6c, 0x5f, 0x32, 0x00,
  0x02, 0x00, 0x00, 0x00, 0x01, 0x00, 0x00, 0x00, 0x08, 0x00, 0x00, 0x00,
  0x20, 0xdf, 0xff, 0xff, 0x14, 0x00, 0x00, 0x00, 0x1c, 0x00, 0x00, 0x00,
  0x1c, 0x00, 0x00, 0x00, 0x5c, 0x00, 0x00, 0x00, 0x28, 0x00, 0x00, 0x00,
  0x02, 0x00, 0x00, 0x00, 0xff, 0xff, 0xff, 0xff, 0x08, 0x00, 0x00, 0x00,
  0x00, 0xde, 0xff, 0xff, 0x0c, 0x00, 0x00, 0x00, 0x77, 0x68, 0x69, 0x6c,
  0x65, 0x2f, 0x54, 0x61, 0x6e, 0x68, 0x5f, 0x31, 0x00, 0x00, 0x00, 0x00,
  0x02, 0x00, 0x00, 0x00, 0x01, 0x00, 0x00, 0x00, 0x08, 0x00, 0x00, 0x00,
  0x68, 0xdf, 0xff, 0xff, 0x14, 0x00, 0x00, 0x00, 0x1c, 0x00, 0x00, 0x00,
  0x1c, 0x00, 0x00, 0x00, 0x5b, 0x00, 0x00, 0x00, 0x24, 0x00, 0x00, 0x00,
  0x02, 0x00, 0x00, 0x00, 0xff, 0xff, 0xff, 0xff, 0x08, 0x00, 0x00, 0x00,
  0x48, 0xde, 0xff, 0xff, 0x0b, 0x00, 0x00, 0x00, 0x77, 0x68, 0x69, 0x6c,
  0x65, 0x2f, 0x61, 0x64, 0x64, 0x5f, 0x31, 0x00, 0x02, 0x00, 0x00, 0x00,
  0x01, 0x00, 0x00, 0x00, 0x08, 0x00, 0x00, 0x00, 0xac, 0xdf, 0xff, 0xff,
  0x14, 0x00, 0x00, 0x00, 0x1c, 0x00, 0x00, 0x00, 0x1c, 0x00, 0x00, 0x00,
  0x5a, 0x00, 0x00, 0x00, 0x24, 0x00, 0x00, 0x00, 0x02, 0x00, 0x00, 0x00,
  0xff, 0xff, 0xff, 0xff, 0x08, 0x00, 0x00, 0x00, 0x8c, 0xde, 0xff, 0xff,
  0x0b, 0x00, 0x00, 0x00, 0x77, 0x68, 0x69, 0x6c, 0x65, 0x2f, 0x6d, 0x75,
  0x6c, 0x5f, 0x31, 0x00, 0x02, 0x00, 0x00, 0x00, 0x01, 0x00, 0x00, 0x00,
  0x08, 0x00, 0x00, 0x00, 0xf0, 0xdf, 0xff, 0xff, 0x14, 0x00, 0x00, 0x00,
  0x1c, 0x00, 0x00, 0x00, 0x1c, 0x00, 0x00, 0x00, 0x59, 0x00, 0x00, 0x00,
  0x24, 0x00, 0x00, 0x00, 0x02, 0x00, 0x00, 0x00, 0xff, 0xff, 0xff, 0xff,
  0x08, 0x00, 0x00, 0x00, 0xd0, 0xde, 0xff, 0xff, 0x0a, 0x00, 0x00, 0x00,
  0x77, 0x68, 0x69, 0x6c, 0x65, 0x2f, 0x54, 0x61, 0x6e, 0x68, 0x00, 0x00,
  0x02, 0x00, 0x00, 0x00, 0x01, 0x00, 0x00, 0x00, 0x08, 0x00, 0x00, 0x00,
  0x34, 0xe0, 0xff, 0xff, 0x14, 0x00, 0x00, 0x00, 0x1c, 0x00, 0x00, 0x00,
  0x1c, 0x00, 0x00, 0x00, 0x58, 0x00, 0x00, 0x00, 0x28, 0x00, 0x00, 0x00,
  0x02, 0x00, 0x00, 0x00, 0xff, 0xff, 0xff, 0xff, 0x08, 0x00, 0x00, 0x00,
  0x14, 0xdf, 0xff, 0xff, 0x0f, 0x00, 0x00, 0x00, 0x77, 0x68, 0x69, 0x6c,
  0x65, 0x2f, 0x53, 0x69, 0x67, 0x6d, 0x6f, 0x69, 0x64, 0x5f, 0x32, 0x00,
  0x02, 0x00, 0x00, 0x00, 0x01, 0x00, 0x00, 0x00, 0x08, 0x00, 0x00, 0x00,
  0x7c, 0xe0, 0xff, 0xff, 0x14, 0x00, 0x00, 0x00, 0x1c, 0x00, 0x00, 0x00,
  0x1c, 0x00, 0x00, 0x00, 0x57, 0x00, 0x00, 0x00, 0x24, 0x00, 0x00, 0x00,
  0x02, 0x00, 0x00, 0x00, 0xff, 0xff, 0xff, 0xff, 0x08, 0x00, 0x00, 0x00,
  0x5c, 0xdf, 0xff, 0xff, 0x09, 0x00, 0x00, 0x00, 0x77, 0x68, 0x69, 0x6c,
  0x65, 0x2f, 0x6d, 0x75, 0x6c, 0x00, 0x00, 0x00, 0x02, 0x00, 0x00, 0x00,
  0x01, 0x00, 0x00, 0x00, 0x08, 0x00, 0x00, 0x00, 0xc0, 0xe0, 0xff, 0xff,
  0x14, 0x00, 0x00, 0x00, 0x1c, 0x00, 0x00, 0x00, 0x1c, 0x00, 0x00, 0x00,
  0x56, 0x00, 0x00, 0x00, 0x28, 0x00, 0x00, 0x00, 0x02, 0x00, 0x00, 0x00,
  0xff, 0xff, 0xff, 0xff, 0x08, 0x00, 0x00, 0x00, 0xa0, 0xdf, 0xff, 0xff,
  0x0f, 0x00, 0x00, 0x00, 0x77, 0x68, 0x69, 0x6c, 0x65, 0x2f, 0x53, 0x69,
  0x67, 0x6d, 0x6f, 0x69, 0x64, 0x5f, 0x31, 0x00, 0x02, 0x00, 0x00, 0x00,
  0x01, 0x00, 0x00, 0x00, 0x08, 0x00, 0x00, 0x00, 0x08, 0xe1, 0xff, 0xff,
  0x14, 0x00, 0x00, 0x00, 0x1c, 0x00, 0x00, 0x00, 0x1c, 0x00, 0x00, 0x00,
  0x55, 0x00, 0x00, 0x00, 0x28, 0x00, 0x00, 0x00, 0x02, 0x00, 0x00, 0x00,
  0xff, 0xff, 0xff, 0xff, 0x08, 0x00, 0x00, 0x00, 0xe8, 0xdf, 0xff, 0xff,
  0x0d, 0x00, 0x00, 0x00, 0x77, 0x68, 0x69, 0x6c, 0x65, 0x2f, 0x53, 0x69,
  0x67, 0x6d, 0x6f, 0x69, 0x64, 0x00, 0x00, 0x00, 0x02, 0x00, 0x00, 0x00,
  0x01, 0x00, 0x00, 0x00, 0x08, 0x00, 0x00, 0x00, 0x50, 0xe1, 0xff, 0xff,
  0x14, 0x00, 0x00, 0x00, 0x1c, 0x00, 0x00, 0x00, 0x1c, 0x00, 0x00, 0x00,
  0x54, 0x00, 0x00, 0x00, 0x28, 0x00, 0x00, 0x00, 0x02, 0x00, 0x00, 0x00,
  0xff, 0xff, 0xff, 0xff, 0x08, 0x00, 0x00, 0x00, 0x30, 0xe0, 0xff, 0xff,
  0x0c, 0x00, 0x00, 0x00, 0x77, 0x68, 0x69, 0x6c, 0x65, 0x2f, 0x73, 0x70,
  0x6c, 0x69, 0x74, 0x33, 0x00, 0x00, 0x00, 0x00, 0x02, 0x00, 0x00, 0x00,
  0x01, 0x00, 0x00, 0x00, 0x08, 0x00, 0x00, 0x00, 0x98, 0xe1, 0xff, 0xff,
  0x14, 0x00, 0x00, 0x00, 0x1c, 0x00, 0x00, 0x00, 0x1c, 0x00, 0x00, 0x00,
  0x53, 0x00, 0x00, 0x00, 0x28, 0x00, 0x00, 0x00, 0x02, 0x00, 0x00, 0x00,
  0xff, 0xff, 0xff, 0xff, 0x08, 0x00, 0x00, 0x00, 0x78, 0xe0, 0xff, 0xff,
  0x0c, 0x00, 0x00, 0x00, 0x77, 0x68, 0x69, 0x6c, 0x65, 0x2f, 0x73, 0x70,
  0x6c, 0x69, 0x74, 0x32, 0x00, 0x00, 0x00, 0x00, 0x02, 0x00, 0x00, 0x00,
  0x01, 0x00, 0x00, 0x00, 0x08, 0x00, 0x00, 0x00, 0xe0, 0xe1, 0xff, 0xff,
  0x14, 0x00, 0x00, 0x00, 0x1c, 0x00, 0x00, 0x00, 0x1c, 0x00, 0x00, 0x00,
  0x52, 0x00, 0x00, 0x00, 0x28, 0x00, 0x00, 0x00, 0x02, 0x00, 0x00, 0x00,
  0xff, 0xff, 0xff, 0xff, 0x08, 0x00, 0x00, 0x00, 0xc0, 0xe0, 0xff, 0xff,
  0x0c, 0x00, 0x00, 0x00, 0x77, 0x68, 0x69, 0x6c, 0x65, 0x2f, 0x73, 0x70,
  0x6c, 0x69, 0x74, 0x31, 0x00, 0x00, 0x00, 0x00, 0x02, 0x00, 0x00, 0x00,
  0x01, 0x00, 0x00, 0x00, 0x08, 0x00, 0x00, 0x00, 0x28, 0xe2, 0xff, 0xff,
  0x14, 0x00, 0x00, 0x00, 0x1c, 0x00, 0x00, 0x00, 0x1c, 0x00, 0x00, 0x00,
  0x51, 0x00, 0x00, 0x00, 0x24, 0x00, 0x00, 0x00, 0x02, 0x00, 0x00, 0x00,
  0xff, 0xff, 0xff, 0xff, 0x08, 0x00, 0x00, 0x00, 0x08, 0xe1, 0xff, 0xff,
  0x0b, 0x00, 0x00, 0x00, 0x77, 0x68, 0x69, 0x6c, 0x65, 0x2f, 0x73, 0x70,
  0x6c, 0x69, 0x74, 0x00, 0x02, 0x00, 0x00, 0x00, 0x01, 0x00, 0x00, 0x00,
  0x08, 0x00, 0x00, 0x00, 0x6c, 0xe2, 0xff, 0xff, 0x14, 0x00, 0x00, 0x00,
  0x1c, 0x00, 0x00, 0x00, 0x1c, 0x00, 0x00, 0x00, 0x50, 0x00, 0x00, 0x00,
  0x28, 0x00, 0x00, 0x00, 0x02, 0x00, 0x00, 0x00, 0xff, 0xff, 0xff, 0xff,
  0x20, 0x00, 0x00, 0x00, 0x4c, 0xe1, 0xff, 0xff, 0x0d, 0x00, 0x00, 0x00,
  0x77, 0x68, 0x69, 0x6c, 0x65, 0x2f, 0x42, 0x69, 0x61, 0x73, 0x41, 0x64,
  0x64, 0x00, 0x00, 0x00, 0x02, 0x00, 0x00, 0x00, 0x01, 0x00, 0x00, 0x00,
  0x20, 0x00, 0x00, 0x00, 0xb4, 0xe2, 0xff, 0xff, 0x14, 0x00, 0x00, 0x00,
  0x1c, 0x00, 0x00, 0x00, 0x1c, 0x00, 0x00, 0x00, 0x4f, 0x00, 0x00, 0x00,
  0x24, 0x00, 0x00, 0x00, 0x02, 0x00, 0x00, 0x00, 0xff, 0xff, 0xff, 0xff,
  0x20, 0x00, 0x00, 0x00, 0x94, 0xe1, 0xff, 0xff, 0x09, 0x00, 0x00, 0x00,
  0x77, 0x68, 0x69, 0x6c, 0x65, 0x2f, 0x61, 0x64, 0x64, 0x00, 0x00, 0x00,
  0x02, 0x00, 0x00, 0x00, 0x01, 0x00, 0x00, 0x00, 0x20, 0x00, 0x00, 0x00,
  0xf8, 0xe2, 0xff, 0xff, 0x14, 0x00, 0x00, 0x00, 0x1c, 0x00, 0x00, 0x00,
  0x1c, 0x00, 0x00, 0x00, 0x4e, 0x00, 0x00, 0x00, 0x28, 0x00, 0x00, 0x00,
  0x02, 0x00, 0x00, 0x00, 0xff, 0xff, 0xff, 0xff, 0x20, 0x00, 0x00, 0x00,
  0xd8, 0xe1, 0xff, 0xff, 0x0d, 0x00, 0x00, 0x00, 0x77, 0x68, 0x69, 0x6c,
  0x65, 0x2f, 0x4d, 0x61, 0x74, 0x4d, 0x75, 0x6c, 0x32, 0x00, 0x00, 0x00,
  0x02, 0x00, 0x00, 0x00, 0x01, 0x00, 0x00, 0x00, 0x20, 0x00, 0x00, 0x00,
  0x40, 0xe3, 0xff, 0xff, 0x14, 0x00, 0x00, 0x00, 0x1c, 0x00, 0x00, 0x00,
  0x1c, 0x00, 0x00, 0x00, 0x4d, 0x00, 0x00, 0x00, 0x44, 0x00, 0x00, 0x00,
  0x02, 0x00, 0x00, 0x00, 0xff, 0xff, 0xff, 0xff, 0x07, 0x00, 0x00, 0x00,
  0x20, 0xe2, 0xff, 0xff, 0x29, 0x00, 0x00, 0x00, 0x77, 0x68, 0x69, 0x6c,
  0x65, 0x2f, 0x54, 0x65, 0x6e, 0x73, 0x6f, 0x72, 0x41, 0x72, 0x72, 0x61,
  0x79, 0x56, 0x32, 0x52, 0x65, 0x61, 0x64, 0x2f, 0x54, 0x65, 0x6e, 0x73,
  0x6f, 0x72, 0x4c, 0x69, 0x73, 0x74, 0x47, 0x65, 0x74, 0x49, 0x74, 0x65,
  0x6d, 0x00, 0x00, 0x00, 0x02, 0x00, 0x00, 0x00, 0x01, 0x00, 0x00, 0x00,
  0x07, 0x00, 0x00, 0x00, 0xa4, 0xe3, 0xff, 0xff, 0x14, 0x00, 0x00, 0x00,
  0x1c, 0x00, 0x00, 0x00, 0x1c, 0x00, 0x00, 0x00, 0x4c, 0x00, 0x00, 0x00,
  0x28, 0x00, 0x00, 0x00, 0x02, 0x00, 0x00, 0x00, 0xff, 0xff, 0xff, 0xff,
  0x20, 0x00, 0x00, 0x00, 0x84, 0xe2, 0xff, 0xff, 0x0f, 0x00, 0x00, 0x00,
  0x77, 0x68, 0x69, 0x6c, 0x65, 0x2f, 0x4d, 0x61, 0x74, 0x4d, 0x75, 0x6c,
  0x5f, 0x31, 0x31, 0x00, 0x02, 0x00, 0x00, 0x00, 0x01, 0x00, 0x00, 0x00,
  0x20, 0x00, 0x00, 0x00, 0x86, 0xe5, 0xff, 0xff, 0x14, 0x00, 0x00, 0x00,
  0x14, 0x00, 0x00, 0x00, 0x4b, 0x00, 0x00, 0x00, 0x00, 0x00, 0x00, 0x02,
  0x18, 0x00, 0x00, 0x00, 0xc0, 0xe2, 0xff, 0xff, 0x0b, 0x00, 0x00, 0x00,
  0x77, 0x68, 0x69, 0x6c, 0x65, 0x2f, 0x61, 0x64, 0x64, 0x5f, 0x32, 0x00,
  0x00, 0x00, 0x00, 0x00, 0x76, 0xe4, 0xff, 0xff, 0x10, 0x00, 0x00, 0x00,
  0x10, 0x00, 0x00, 0x00, 0x4a, 0x00, 0x00, 0x00, 0x1c, 0x00, 0x00, 0x00,
  0xec, 0xe2, 0xff, 0xff, 0x0c, 0x00, 0x00, 0x00, 0x77, 0x68, 0x69, 0x6c,
  0x65, 0x2f, 0x4d, 0x61, 0x74, 0x4d, 0x75, 0x6c, 0x00, 0x00, 0x00, 0x00,
  0x02, 0x00, 0x00, 0x00, 0x20, 0x00, 0x00, 0x00, 0x07, 0x00, 0x00, 0x00,
  0xae, 0xe4, 0xff, 0xff, 0x10, 0x00, 0x00, 0x00, 0x10, 0x00, 0x00, 0x00,
  0x49, 0x00, 0x00, 0x00, 0x1c, 0x00, 0x00, 0x00, 0x24, 0xe3, 0xff, 0xff,
  0x0e, 0x00, 0x00, 0x00, 0x77, 0x68, 0x69, 0x6c, 0x65, 0x2f, 0x4d, 0x61,
  0x74, 0x4d, 0x75, 0x6c, 0x5f, 0x31, 0x00, 0x00, 0x02, 0x00, 0x00, 0x00,
  0x20, 0x00, 0x00, 0x00, 0x08, 0x00, 0x00, 0x00, 0x26, 0xe6, 0xff, 0xff,
  0x14, 0x00, 0x00, 0x00, 0x14, 0x00, 0x00, 0x00, 0x48, 0x00, 0x00, 0x00,
  0x00, 0x00, 0x00, 0x02, 0x1c, 0x00, 0x00, 0x00, 0x60, 0xe3, 0xff, 0xff,
  0x0e, 0x00, 0x00, 0x00, 0x73, 0x74, 0x72, 0x69, 0x64, 0x65, 0x64, 0x5f,
  0x73, 0x6c, 0x69, 0x63, 0x65, 0x33, 0x00, 0x00, 0x00, 0x00, 0x00, 0x00,
  0x5a, 0xe6, 0xff, 0xff, 0x14, 0x00, 0x00, 0x00, 0x14, 0x00, 0x00, 0x00,
  0x47, 0x00, 0x00, 0x00, 0x00, 0x00, 0x00, 0x02, 0x44, 0x00, 0x00, 0x00,
  0x94, 0xe3, 0xff, 0xff, 0x36, 0x00, 0x00, 0x00, 0x54, 0x65, 0x6e, 0x73,
  0x6f, 0x72, 0x41, 0x72, 0x72, 0x61, 0x79, 0x55, 0x6e, 0x73, 0x74, 0x61,
  0x63, 0x6b, 0x2f, 0x54, 0x65, 0x6e, 0x73, 0x6f, 0x72, 0x4c, 0x69, 0x73,
  0x74, 0x46, 0x72, 0x6f, 0x6d, 0x54, 0x65, 0x6e, 0x73, 0x6f, 0x72, 0x2f,
  0x65, 0x6c, 0x65, 0x6d, 0x65, 0x6e, 0x74, 0x5f, 0x73, 0x68, 0x61, 0x70,
  0x65, 0x31, 0x00, 0x00, 0x01, 0x00, 0x00, 0x00, 0x02, 0x00, 0x00, 0x00,
  0x7a, 0xe5, 0xff, 0xff, 0x10, 0x00, 0x00, 0x00, 0x10, 0x00, 0x00, 0x00,
  0x46, 0x00, 0x00, 0x00, 0x34, 0x00, 0x00, 0x00, 0xf0, 0xe3, 0xff, 0xff,
  0x26, 0x00, 0x00, 0x00, 0x73, 0x65, 0x71, 0x75, 0x65, 0x6e, 0x74, 0x69,
  0x61, 0x6c, 0x2f, 0x6c, 0x73, 0x74, 0x6d, 0x2f, 0x52, 0x65, 0x61, 0x64,
  0x5f, 0x32, 0x2f, 0x52, 0x65, 0x61, 0x64, 0x56, 0x61, 0x72, 0x69, 0x61,
  0x62, 0x6c, 0x65, 0x4f, 0x70, 0x31, 0x00, 0x00, 0x01, 0x00, 0x00, 0x00,
  0x20, 0x00, 0x00, 0x00, 0x06, 0xe7, 0xff, 0xff, 0x14, 0x00, 0x00, 0x00,
  0x14, 0x00, 0x00, 0x00, 0x45, 0x00, 0x00, 0x00, 0x00, 0x00, 0x00, 0x0e,
  0x14, 0x00, 0x00, 0x00, 0x40, 0xe4, 0xff, 0xff, 0x04, 0x00, 0x00, 0x00,
  0x61, 0x72, 0x67, 0x35, 0x00, 0x00, 0x00, 0x00, 0x00, 0x00, 0x00, 0x00,
  0x98, 0xe5, 0xff, 0xff, 0x14, 0x00, 0x00, 0x00, 0x1c, 0x00, 0x00, 0x00,
  0x1c, 0x00, 0x00, 0x00, 0x44, 0x00, 0x00, 0x00, 0x20, 0x00, 0x00, 0x00,
  0x02, 0x00, 0x00, 0x00, 0xff, 0xff, 0xff, 0xff, 0x08, 0x00, 0x00, 0x00,
  0x78, 0xe4, 0xff, 0xff, 0x04, 0x00, 0x00, 0x00, 0x61, 0x72, 0x67, 0x34,
  0x00, 0x00, 0x00, 0x00, 0x02, 0x00, 0x00, 0x00, 0x01, 0x00, 0x00, 0x00,
  0x08, 0x00, 0x00, 0x00, 0xd8, 0xe5, 0xff, 0xff, 0x14, 0x00, 0x00, 0x00,
  0x1c, 0x00, 0x00, 0x00, 0x1c, 0x00, 0x00, 0x00, 0x43, 0x00, 0x00, 0x00,
  0x20, 0x00, 0x00, 0x00, 0x02, 0x00, 0x00, 0x00, 0xff, 0xff, 0xff, 0xff,
  0x08, 0x00, 0x00, 0x00, 0xb8, 0xe4, 0xff, 0xff, 0x04, 0x00, 0x00, 0x00,
  0x61, 0x72, 0x67, 0x33, 0x00, 0x00, 0x00, 0x00, 0x02, 0x00, 0x00, 0x00,
  0x01, 0x00, 0x00, 0x00, 0x08, 0x00, 0x00, 0x00, 0xb2, 0xe7, 0xff, 0xff,
  0x14, 0x00, 0x00, 0x00, 0x14, 0x00, 0x00, 0x00, 0x42, 0x00, 0x00, 0x00,
  0x00, 0x00, 0x00, 0x0e, 0x14, 0x00, 0x00, 0x00, 0xec, 0xe4, 0xff, 0xff,
  0x04, 0x00, 0x00, 0x00, 0x61, 0x72, 0x67, 0x32, 0x00, 0x00, 0x00, 0x00,
  0x00, 0x00, 0x00, 0x00, 0xde, 0xe7, 0xff, 0xff, 0x14, 0x00, 0x00, 0x00,
  0x14, 0x00, 0x00, 0x00, 0x41, 0x00, 0x00, 0x00, 0x00, 0x00, 0x00, 0x02,
  0x14, 0x00, 0x00, 0x00, 0x18, 0xe5, 0xff, 0xff, 0x04, 0x00, 0x00, 0x00,
  0x61, 0x72, 0x67, 0x31, 0x00, 0x00, 0x00, 0x00, 0x00, 0x00, 0x00, 0x00,
  0x0a, 0xe8, 0xff, 0xff, 0x14, 0x00, 0x00, 0x00, 0x14, 0x00, 0x00, 0x00,
  0x40, 0x00, 0x00, 0x00, 0x00, 0x00, 0x00, 0x02, 0x14, 0x00, 0x00, 0x00,
  0x44, 0xe5, 0xff, 0xff, 0x04, 0x00, 0x00, 0x00, 0x61, 0x72, 0x67, 0x30,
  0x00, 0x00, 0x00, 0x00, 0x00, 0x00, 0x00, 0x00, 0xce, 0xfd, 0xff, 0xff,
  0x14, 0x00, 0x00, 0x00, 0x20, 0x00, 0x00, 0x00, 0x48, 0x00, 0x00, 0x00,
  0x4c, 0x00, 0x00, 0x00, 0x64, 0x00, 0x00, 0x00, 0x0a, 0x00, 0x00, 0x00,
  0x77, 0x68, 0x69, 0x6c, 0x65, 0x5f, 0x63, 0x6f, 0x6e, 0x64, 0x00, 0x00,
  0x01, 0x00, 0x00, 0x00, 0x04, 0x00, 0x00, 0x00, 0x12, 0xf7, 0xff, 0xff,
  0x0c, 0x00, 0x00, 0x00, 0x10, 0x00, 0x00, 0x00, 0x0a, 0x00, 0x00, 0x00,
  0x01, 0x00, 0x00, 0x00, 0x07, 0x00, 0x00, 0x00, 0x02, 0x00, 0x00, 0x00,
  0x01, 0x00, 0x00, 0x00, 0x06, 0x00, 0x00, 0x00, 0x01, 0x00, 0x00, 0x00,
  0x07, 0x00, 0x00, 0x00, 0x06, 0x00, 0x00, 0x00, 0x00, 0x00, 0x00, 0x00,
  0x01, 0x00, 0x00, 0x00, 0x02, 0x00, 0x00, 0x00, 0x03, 0x00, 0x00, 0x00,
  0x04, 0x00, 0x00, 0x00, 0x05, 0x00, 0x00, 0x00, 0x08, 0x00, 0x00, 0x00,
  0x88, 0x01, 0x00, 0x00, 0x58, 0x01, 0x00, 0x00, 0x28, 0x01, 0x00, 0x00,
  0xe4, 0x00, 0x00, 0x00, 0xa0, 0x00, 0x00, 0x00, 0x70, 0x00, 0x00, 0x00,
  0x38, 0x00, 0x00, 0x00, 0x04, 0x00, 0x00, 0x00, 0xd2, 0xe8, 0xff, 0xff,
  0x14, 0x00, 0x00, 0x00, 0x14, 0x00, 0x00, 0x00, 0x3f, 0x00, 0x00, 0x00,
  0x00, 0x00, 0x00, 0x06, 0x18, 0x00, 0x00, 0x00, 0x0c, 0xe6, 0xff, 0xff,
  0x0a, 0x00, 0x00, 0x00, 0x77, 0x68, 0x69, 0x6c, 0x65, 0x2f, 0x4c, 0x65,
  0x73, 0x73, 0x00, 0x00, 0x00, 0x00, 0x00, 0x00, 0x02, 0xe9, 0xff, 0xff,
  0x14, 0x00, 0x00, 0x00, 0x14, 0x00, 0x00, 0x00, 0x3e, 0x00, 0x00, 0x00,
  0x00, 0x00, 0x00, 0x02, 0x1c, 0x00, 0x00, 0x00, 0x3c, 0xe6, 0xff, 0xff,
  0x0e, 0x00, 0x00, 0x00, 0x73, 0x74, 0x72, 0x69, 0x64, 0x65, 0x64, 0x5f,
  0x73, 0x6c, 0x69, 0x63, 0x65, 0x32, 0x00, 0x00, 0x00, 0x00, 0x00, 0x00,
  0x36, 0xe9, 0xff, 0xff, 0x14, 0x00, 0x00, 0x00, 0x14, 0x00, 0x00, 0x00,
  0x3d, 0x00, 0x00, 0x00, 0x00, 0x00, 0x00, 0x0e, 0x14, 0x00, 0x00, 0x00,
  0x70, 0xe6, 0xff, 0xff, 0x04, 0x00, 0x00, 0x00, 0x61, 0x72, 0x67, 0x35,
  0x00, 0x00, 0x00, 0x00, 0x00, 0x00, 0x00, 0x00, 0xc8, 0xe7, 0xff, 0xff,
  0x14, 0x00, 0x00, 0x00, 0x1c, 0x00, 0x00, 0x00, 0x1c, 0x00, 0x00, 0x00,
  0x3c, 0x00, 0x00, 0x00, 0x20, 0x00, 0x00, 0x00, 0x02, 0x00, 0x00, 0x00,
  0xff, 0xff, 0xff, 0xff, 0x08, 0x00, 0x00, 0x00, 0xa8, 0xe6, 0xff, 0xff,
  0x04, 0x00, 0x00, 0x00, 0x61, 0x72, 0x67, 0x34, 0x00, 0x00, 0x00, 0x00,
  0x02, 0x00, 0x00, 0x00, 0x01, 0x00, 0x00, 0x00, 0x08, 0x00, 0x00, 0x00,
  0x08, 0xe8, 0xff, 0xff, 0x14, 0x00, 0x00, 0x00, 0x1c, 0x00, 0x00, 0x00,
  0x1c, 0x00, 0x00, 0x00, 0x3b, 0x00, 0x00, 0x00, 0x20, 0x00, 0x00, 0x00,
  0x02, 0x00, 0x00, 0x00, 0xff, 0xff, 0xff, 0xff, 0x08, 0x00, 0x00, 0x00,
  0xe8, 0xe6, 0xff, 0xff, 0x04, 0x00, 0x00, 0x00, 0x61, 0x72, 0x67, 0x33,
  0x00, 0x00, 0x00, 0x00, 0x02, 0x00, 0x00, 0x00, 0x01, 0x00, 0x00, 0x00,
  0x08, 0x00, 0x00, 0x00, 0xe2, 0xe9, 0xff, 0xff, 0x14, 0x00, 0x00, 0x00,
  0x14, 0x00, 0x00, 0x00, 0x3a, 0x00, 0x00, 0x00, 0x00, 0x00, 0x00, 0x0e,
  0x14, 0x00, 0x00, 0x00, 0x1c, 0xe7, 0xff, 0xff, 0x04, 0x00, 0x00, 0x00,
  0x61, 0x72, 0x67, 0x32, 0x00, 0x00, 0x00, 0x00, 0x00, 0x00, 0x00, 0x00,
  0x0e, 0xea, 0xff, 0xff, 0x14, 0x00, 0x00, 0x00, 0x14, 0x00, 0x00, 0x00,
  0x39, 0x00, 0x00, 0x00, 0x00, 0x00, 0x00, 0x02, 0x14, 0x00, 0x00, 0x00,
  0x48, 0xe7, 0xff, 0xff, 0x04, 0x00, 0x00, 0x00, 0x61, 0x72, 0x67, 0x31,
  0x00, 0x00, 0x00, 0x00, 0x00, 0x00, 0x00, 0x00, 0x3a, 0xea, 0xff, 0xff,
  0x14, 0x00, 0x00, 0x00, 0x14, 0x00, 0x00, 0x00, 0x38, 0x00, 0x00, 0x00,
  0x00, 0x00, 0x00, 0x02, 0x14, 0x00, 0x00, 0x00, 0x74, 0xe7, 0xff, 0xff,
  0x04, 0x00, 0x00, 0x00, 0x61, 0x72, 0x67, 0x30, 0x00, 0x00, 0x00, 0x00,
  0x00, 0x00, 0x00, 0x00, 0x00, 0x00, 0x0e, 0x00, 0x18, 0x00, 0x14, 0x00,
  0x10, 0x00, 0x0c, 0x00, 0x08, 0x00, 0x04, 0x00, 0x0e, 0x00, 0x00, 0x00,
  0x14, 0x00, 0x00, 0x00, 0x1c, 0x00, 0x00, 0x00, 0xdc, 0x07, 0x00, 0x00,
  0xe0, 0x07, 0x00, 0x00, 0xe4, 0x07, 0x00, 0x00, 0x04, 0x00, 0x00, 0x00,
  0x6d, 0x61, 0x69, 0x6e, 0x00, 0x00, 0x00, 0x00, 0x17, 0x00, 0x00, 0x00,
  0x8c, 0x07, 0x00, 0x00, 0x2c, 0x07, 0x00, 0x00, 0xdc, 0x06, 0x00, 0x00,
  0xb4, 0x06, 0x00, 0x00, 0x80, 0x06, 0x00, 0x00, 0xf0, 0x05, 0x00, 0x00,
  0x4c, 0x05, 0x00, 0x00, 0xe4, 0x04, 0x00, 0x00, 0x50, 0x04, 0x00, 0x00,
  0x28, 0x04, 0x00, 0x00, 0xf8, 0x03, 0x00, 0x00, 0xb8, 0x03, 0x00, 0x00,
  0x80, 0x03, 0x00, 0x00, 0x58, 0x03, 0x00, 0x00, 0xc8, 0x02, 0x00, 0x00,
  0x98, 0x02, 0x00, 0x00, 0x58, 0x02, 0x00, 0x00, 0xc4, 0x01, 0x00, 0x00,
  0x5c, 0x01, 0x00, 0x00, 0xd0, 0x00, 0x00, 0x00, 0x78, 0x00, 0x00, 0x00,
  0x3c, 0x00, 0x00, 0x00, 0x04, 0x00, 0x00, 0x00, 0x3a, 0xf9, 0xff, 0xff,
  0x14, 0x00, 0x00, 0x00, 0x00, 0x00, 0x00, 0x08, 0x10, 0x00, 0x00, 0x00,
  0x14, 0x00, 0x00, 0x00, 0x09, 0x00, 0x00, 0x00, 0x34, 0xe8, 0xff, 0xff,
  0x01, 0x00, 0x00, 0x00, 0x36, 0x00, 0x00, 0x00, 0x03, 0x00, 0x00, 0x00,
  0x35, 0x00, 0x00, 0x00, 0x11, 0x00, 0x00, 0x00, 0x04, 0x00, 0x00, 0x00,
  0x6e, 0xf9, 0xff, 0xff, 0x14, 0x00, 0x00, 0x00, 0x00, 0x00, 0x00, 0x08,
  0x14, 0x00, 0x00, 0x00, 0x18, 0x00, 0x00, 0x00, 0x09, 0x00, 0x00, 0x00,
  0x06, 0xf9, 0xff, 0xff, 0x00, 0x00, 0x00, 0x01, 0x01, 0x00, 0x00, 0x00,
  0x35, 0x00, 0x00, 0x00, 0x03, 0x00, 0x00, 0x00, 0x34, 0x00, 0x00, 0x00,
  0x10, 0x00, 0x00, 0x00, 0x03, 0x00, 0x00, 0x00, 0xa6, 0xf9, 0xff, 0xff,
  0x24, 0x00, 0x00, 0x00, 0x00, 0x00, 0x00, 0x20, 0x2c, 0x00, 0x00, 0x00,
  0x30, 0x00, 0x00, 0x00, 0x01, 0x00, 0x00, 0x00, 0x00, 0x00, 0x0e, 0x00,
  0x10, 0x00, 0x0c, 0x00, 0x08, 0x00, 0x00, 0x00, 0x00, 0x00, 0x04, 0x00,
  0x0e, 0x00, 0x00, 0x00, 0x01, 0x00, 0x00, 0x00, 0x06, 0x00, 0x00, 0x00,
  0x06, 0x00, 0x00, 0x00, 0x01, 0x00, 0x00, 0x00, 0x34, 0x00, 0x00, 0x00,
  0x04, 0x00, 0x00, 0x00, 0x33, 0x00, 0x00, 0x00, 0x12, 0x00, 0x00, 0x00,
  0x13, 0x00, 0x00, 0x00, 0x14, 0x00, 0x00, 0x00, 0x28, 0xfb, 0xff, 0xff,
  0x10, 0x00, 0x00, 0x00, 0x6c, 0x00, 0x00, 0x00, 0x70, 0x00, 0x00, 0x00,
  0x08, 0x00, 0x00, 0x00, 0x5b, 0x00, 0x00, 0x00, 0x0f, 0x54, 0x65, 0x6e,
  0x73, 0x6f, 0x72, 0x4c, 0x69, 0x73, 0x74, 0x53, 0x74, 0x61, 0x63, 0x6b,
  0x00, 0x40, 0x12, 0x0f, 0x54, 0x65, 0x6e, 0x73, 0x6f, 0x72, 0x4c, 0x69,
  0x73, 0x74, 0x53, 0x74, 0x61, 0x63, 0x6b, 0x1a, 0x00, 0x1a, 0x00, 0x2a,
  0x12, 0x0a, 0x0c, 0x6e, 0x75, 0x6d, 0x5f, 0x65, 0x6c, 0x65, 0x6d, 0x65,
  0x6e, 0x74, 0x73, 0x12, 0x02, 0x18, 0x01, 0x2a, 0x13, 0x0a, 0x0d, 0x65,
  0x6c, 0x65, 0x6d, 0x65, 0x6e, 0x74, 0x5f, 0x64, 0x74, 0x79, 0x70, 0x65,
  0x12, 0x02, 0x30, 0x01, 0x32, 0x00, 0x00, 0x02, 0x53, 0x43, 0x14, 0x14,
  0x04, 0x28, 0x01, 0x00, 0x01, 0x00, 0x00, 0x00, 0x33, 0x00, 0x00, 0x00,
  0x02, 0x00, 0x00, 0x00, 0x2e, 0x00, 0x00, 0x00, 0x0e, 0x00, 0x00, 0x00,
  0x82, 0xfa, 0xff, 0xff, 0x14, 0x00, 0x00, 0x00, 0x00, 0x00, 0x00, 0x5d,
  0x18, 0x00, 0x00, 0x00, 0x34, 0x00, 0x00, 0x00, 0x07, 0x00, 0x00, 0x00,
  0xa4, 0xfc, 0xff, 0xff, 0x04, 0x00, 0x00, 0x00, 0x03, 0x00, 0x00, 0x00,
  0x07, 0x00, 0x00, 0x00, 0x2c, 0x00, 0x00, 0x00, 0x2d, 0x00, 0x00, 0x00,
  0x2e, 0x00, 0x00, 0x00, 0x2f, 0x00, 0x00, 0x00, 0x30, 0x00, 0x00, 0x00,
  0x31, 0x00, 0x00, 0x00, 0x32, 0x00, 0x00, 0x00, 0x07, 0x00, 0x00, 0x00,
  0x09, 0x00, 0x00, 0x00, 0x09, 0x00, 0x00, 0x00, 0x28, 0x00, 0x00, 0x00,
  0x27, 0x00, 0x00, 0x00, 0x27, 0x00, 0x00, 0x00, 0x2a, 0x00, 0x00, 0x00,
  0x2b, 0x00, 0x00, 0x00, 0x14, 0xfc, 0xff, 0xff, 0x10, 0x00, 0x00, 0x00,
  0x74, 0x00, 0x00, 0x00, 0x78, 0x00, 0x00, 0x00, 0x06, 0x00, 0x00, 0x00,
  0x63, 0x00, 0x00, 0x00, 0x14, 0x54, 0x65, 0x6e, 0x73, 0x6f, 0x72, 0x4c,
  0x69, 0x73, 0x74, 0x46, 0x72, 0x6f, 0x6d, 0x54, 0x65, 0x6e, 0x73, 0x6f,
  0x72, 0x00, 0x43, 0x12, 0x14, 0x54, 0x65, 0x6e, 0x73, 0x6f, 0x72, 0x4c,
  0x69, 0x73, 0x74, 0x46, 0x72, 0x6f, 0x6d, 0x54, 0x65, 0x6e, 0x73, 0x6f,
  0x72, 0x1a, 0x00, 0x1a, 0x00, 0x2a, 0x10, 0x0a, 0x0a, 0x73, 0x68, 0x61,
  0x70, 0x65, 0x5f, 0x74, 0x79, 0x70, 0x65, 0x12, 0x02, 0x30, 0x03, 0x2a,
  0x13, 0x0a, 0x0d, 0x65, 0x6c, 0x65, 0x6d, 0x65, 0x6e, 0x74, 0x5f, 0x64,
  0x74, 0x79, 0x70, 0x65, 0x12, 0x02, 0x30, 0x01, 0x32, 0x00, 0x00, 0x02,
  0x5b, 0x46, 0x14, 0x14, 0x04, 0x28, 0x01, 0x00, 0x01, 0x00, 0x00, 0x00,
  0x2b, 0x00, 0x00, 0x00, 0x02, 0x00, 0x00, 0x00, 0x22, 0x00, 0x00, 0x00,
  0x0f, 0x00, 0x00, 0x00, 0x76, 0xfb, 0xff, 0xff, 0x14, 0x00, 0x00, 0x00,
  0x00, 0x00, 0x00, 0x20, 0x14, 0x00, 0x00, 0x00, 0x18, 0x00, 0x00, 0x00,
  0x01, 0x00, 0x00, 0x00, 0x66, 0xfb, 0xff, 0xff, 0x01, 0x00, 0x00, 0x00,
  0x01, 0x00, 0x00, 0x00, 0x2a, 0x00, 0x00, 0x00, 0x04, 0x00, 0x00, 0x00,
  0x29, 0x00, 0x00, 0x00, 0x0c, 0x00, 0x00, 0x00, 0x0b, 0x00, 0x00, 0x00,
  0x0b, 0x00, 0x00, 0x00, 0x56, 0xfb, 0xff, 0xff, 0x10, 0x00, 0x00, 0x00,
  0x00, 0x00, 0x00, 0x37, 0x10, 0x00, 0x00, 0x00, 0x14, 0x00, 0x00, 0x00,
  0x46, 0xfb, 0xff, 0xff, 0x00, 0x00, 0x00, 0x02, 0x01, 0x00, 0x00, 0x00,
  0x29, 0x00, 0x00, 0x00, 0x01, 0x00, 0x00, 0x00, 0x22, 0x00, 0x00, 0x00,
  0x0c, 0xfd, 0xff, 0xff, 0x10, 0x00, 0x00, 0x00, 0x70, 0x00, 0x00, 0x00,
  0x74, 0x00, 0x00, 0x00, 0x05, 0x00, 0x00, 0x00, 0x5d, 0x00, 0x00, 0x00,
  0x11, 0x54, 0x65, 0x6e, 0x73, 0x6f, 0x72, 0x4c, 0x69, 0x73, 0x74, 0x52,
  0x65, 0x73, 0x65, 0x72, 0x76, 0x65, 0x00, 0x40, 0x12, 0x11, 0x54, 0x65,
  0x6e, 0x73, 0x6f, 0x72, 0x4c, 0x69, 0x73, 0x74, 0x52, 0x65, 0x73, 0x65,
  0x72, 0x76, 0x65, 0x1a, 0x00, 0x1a, 0x00, 0x2a, 0x10, 0x0a, 0x0a, 0x73,
  0x68, 0x61, 0x70, 0x65, 0x5f, 0x74, 0x79, 0x70, 0x65, 0x12, 0x02, 0x30,
  0x03, 0x2a, 0x13, 0x0a, 0x0d, 0x65, 0x6c, 0x65, 0x6d, 0x65, 0x6e, 0x74,
  0x5f, 0x64, 0x74, 0x79, 0x70, 0x65, 0x12, 0x02, 0x30, 0x01, 0x32, 0x00,
  0x00, 0x02, 0x55, 0x43, 0x14, 0x14, 0x04, 0x28, 0x01, 0x00, 0x00, 0x00,
  0x01, 0x00, 0x00, 0x00, 0x28, 0x00, 0x00, 0x00, 0x02, 0x00, 0x00, 0x00,
  0x0e, 0x00, 0x00, 0x00, 0x0d, 0x00, 0x00, 0x00, 0xd6, 0xfc, 0xff, 0xff,
  0x0c, 0x00, 0x00, 0x00, 0x10, 0x00, 0x00, 0x00, 0x03, 0x00, 0x00, 0x00,
  0x01, 0x00, 0x00, 0x00, 0x27, 0x00, 0x00, 0x00, 0x02, 0x00, 0x00, 0x00,
  0x26, 0x00, 0x00, 0x00, 0x06, 0x00, 0x00, 0x00, 0x8e, 0xfc, 0xff, 0xff,
  0x14, 0x00, 0x00, 0x00, 0x00, 0x00, 0x00, 0x3b, 0x14, 0x00, 0x00, 0x00,
  0x18, 0x00, 0x00, 0x00, 0x02, 0x00, 0x00, 0x00, 0xca, 0xfc, 0xff, 0xff,
  0x02, 0x00, 0x00, 0x00, 0x01, 0x00, 0x00, 0x00, 0x26, 0x00, 0x00, 0x00,
  0x02, 0x00, 0x00, 0x00, 0x25, 0x00, 0x00, 0x00, 0x05, 0x00, 0x00, 0x00,
  0xc2, 0xfc, 0xff, 0xff, 0x14, 0x00, 0x00, 0x00, 0x00, 0x00, 0x00, 0x20,
  0x14, 0x00, 0x00, 0x00, 0x18, 0x00, 0x00, 0x00, 0x01, 0x00, 0x00, 0x00,
  0xb2, 0xfc, 0xff, 0xff, 0x01, 0x00, 0x00, 0x00, 0x01, 0x00, 0x00, 0x00,
  0x25, 0x00, 0x00, 0x00, 0x04, 0x00, 0x00, 0x00, 0x24, 0x00, 0x00, 0x00,
  0x0c, 0x00, 0x00, 0x00, 0x0b, 0x00, 0x00, 0x00, 0x0b, 0x00, 0x00, 0x00,
  0xa2, 0xfc, 0xff, 0xff, 0x10, 0x00, 0x00, 0x00, 0x00, 0x00, 0x00, 0x37,
  0x10, 0x00, 0x00, 0x00, 0x14, 0x00, 0x00, 0x00, 0x92, 0xfc, 0xff, 0xff,
  0x00, 0x00, 0x00, 0x02, 0x01, 0x00, 0x00, 0x00, 0x24, 0x00, 0x00, 0x00,
  0x01, 0x00, 0x00, 0x00, 0x23, 0x00, 0x00, 0x00, 0x96, 0xfd, 0xff, 0xff,
  0x0c, 0x00, 0x00, 0x00, 0x10, 0x00, 0x00, 0x00, 0x04, 0x00, 0x00, 0x00,
  0x01, 0x00, 0x00, 0x00, 0x23, 0x00, 0x00, 0x00, 0x02, 0x00, 0x00, 0x00,
  0x22, 0x00, 0x00, 0x00, 0x0a, 0x00, 0x00, 0x00, 0x7c, 0xfe, 0xff, 0xff,
  0x10, 0x00, 0x00, 0x00, 0x74, 0x00, 0x00, 0x00, 0x78, 0x00, 0x00, 0x00,
  0x08, 0x00, 0x00, 0x00, 0x64, 0x00, 0x00, 0x00, 0x0f, 0x54, 0x65, 0x6e,
  0x73, 0x6f, 0x72, 0x4c, 0x69, 0x73, 0x74, 0x53, 0x74, 0x61, 0x63, 0x6b,
  0x00, 0x49, 0x12, 0x0f, 0x54, 0x65, 0x6e, 0x73, 0x6f, 0x72, 0x4c, 0x69,
  0x73, 0x74, 0x53, 0x74, 0x61, 0x63, 0x6b, 0x1a, 0x00, 0x1a, 0x00, 0x2a,
  0x13, 0x0a, 0x0d, 0x65, 0x6c, 0x65, 0x6d, 0x65, 0x6e, 0x74, 0x5f, 0x64,
  0x74, 0x79, 0x70, 0x65, 0x12, 0x02, 0x30, 0x01, 0x2a, 0x1b, 0x0a, 0x0c,
  0x6e, 0x75, 0x6d, 0x5f, 0x65, 0x6c, 0x65, 0x6d, 0x65, 0x6e, 0x74, 0x73,
  0x12, 0x0b, 0x18, 0xff, 0xff, 0xff, 0xff, 0xff, 0xff, 0xff, 0xff, 0xff,
  0x01, 0x32, 0x00, 0x00, 0x02, 0x5c, 0x4c, 0x14, 0x14, 0x04, 0x28, 0x01,
  0x01, 0x00, 0x00, 0x00, 0x22, 0x00, 0x00, 0x00, 0x02, 0x00, 0x00, 0x00,
  0x1e, 0x00, 0x00, 0x00, 0x0f, 0x00, 0x00, 0x00, 0xde, 0xfd, 0xff, 0xff,
  0x1c, 0x00, 0x00, 0x00, 0x00, 0x00, 0x00, 0x5d, 0x20, 0x00, 0x00, 0x00,
  0x38, 0x00, 0x00, 0x00, 0x07, 0x00, 0x00, 0x00, 0x08, 0x00, 0x0c, 0x00,
  0x08, 0x00, 0x04, 0x00, 0x08, 0x00, 0x00, 0x00, 0x02, 0x00, 0x00, 0x00,
  0x01, 0x00, 0x00, 0x00, 0x06, 0x00, 0x00, 0x00, 0x1c, 0x00, 0x00, 0x00,
  0x1d, 0x00, 0x00, 0x00, 0x1e, 0x00, 0x00, 0x00, 0x1f, 0x00, 0x00, 0x00,
  0x20, 0x00, 0x00, 0x00, 0x21, 0x00, 0x00, 0x00, 0x06, 0x00, 0x00, 0x00,
  0x09, 0x00, 0x00, 0x00, 0x09, 0x00, 0x00, 0x00, 0x1a, 0x00, 0x00, 0x00,
  0x18, 0x00, 0x00, 0x00, 0x18, 0x00, 0x00, 0x00, 0x1b, 0x00, 0x00, 0x00,
  0x70, 0xff, 0xff, 0xff, 0x10, 0x00, 0x00, 0x00, 0x74, 0x00, 0x00, 0x00,
  0x78, 0x00, 0x00, 0x00, 0x06, 0x00, 0x00, 0x00, 0x63, 0x00, 0x00, 0x00,
  0x14, 0x54, 0x65, 0x6e, 0x73, 0x6f, 0x72, 0x4c, 0x69, 0x73, 0x74, 0x46,
  0x72, 0x6f, 0x6d, 0x54, 0x65, 0x6e, 0x73, 0x6f, 0x72, 0x00, 0x43, 0x12,
  0x14, 0x54, 0x65, 0x6e, 0x73, 0x6f, 0x72, 0x4c, 0x69, 0x73, 0x74, 0x46,
  0x72, 0x6f, 0x6d, 0x54, 0x65, 0x6e, 0x73, 0x6f, 0x72, 0x1a, 0x00, 0x1a,
  0x00, 0x2a, 0x10, 0x0a, 0x0a, 0x73, 0x68, 0x61, 0x70, 0x65, 0x5f, 0x74,
  0x79, 0x70, 0x65, 0x12, 0x02, 0x30, 0x03, 0x2a, 0x13, 0x0a, 0x0d, 0x65,
  0x6c, 0x65, 0x6d, 0x65, 0x6e, 0x74, 0x5f, 0x64, 0x74, 0x79, 0x70, 0x65,
  0x12, 0x02, 0x30, 0x01, 0x32, 0x00, 0x00, 0x02, 0x5b, 0x46, 0x14, 0x14,
  0x04, 0x28, 0x01, 0x00, 0x01, 0x00, 0x00, 0x00, 0x1b, 0x00, 0x00, 0x00,
  0x02, 0x00, 0x00, 0x00, 0x19, 0x00, 0x00, 0x00, 0x08, 0x00, 0x00, 0x00,
  0x10, 0x00, 0x14, 0x00, 0x10, 0x00, 0x0c, 0x00, 0x08, 0x00, 0x00, 0x00,
  0x00, 0x00, 0x04, 0x00, 0x10, 0x00, 0x00, 0x00, 0x10, 0x00, 0x00, 0x00,
  0x70, 0x00, 0x00, 0x00, 0x74, 0x00, 0x00, 0x00, 0x05, 0x00, 0x00, 0x00,
  0x5d, 0x00, 0x00, 0x00, 0x11, 0x54, 0x65, 0x6e, 0x73, 0x6f, 0x72, 0x4c,
  0x69, 0x73, 0x74, 0x52, 0x65, 0x73, 0x65, 0x72, 0x76, 0x65, 0x00, 0x40,
  0x12, 0x11, 0x54, 0x65, 0x6e, 0x73, 0x6f, 0x72, 0x4c, 0x69, 0x73, 0x74,
  0x52, 0x65, 0x73, 0x65, 0x72, 0x76, 0x65, 0x1a, 0x00, 0x1a, 0x00, 0x2a,
  0x10, 0x0a, 0x0a, 0x73, 0x68, 0x61, 0x70, 0x65, 0x5f, 0x74, 0x79, 0x70,
  0x65, 0x12, 0x02, 0x30, 0x03, 0x2a, 0x13, 0x0a, 0x0d, 0x65, 0x6c, 0x65,
  0x6d, 0x65, 0x6e, 0x74, 0x5f, 0x64, 0x74, 0x79, 0x70, 0x65, 0x12, 0x02,
  0x30, 0x01, 0x32, 0x00, 0x00, 0x02, 0x55, 0x43, 0x14, 0x14, 0x04, 0x28,
  0x01, 0x00, 0x00, 0x00, 0x01, 0x00, 0x00, 0x00, 0x1a, 0x00, 0x00, 0x00,
  0x02, 0x00, 0x00, 0x00, 0x0f, 0x00, 0x00, 0x00, 0x0d, 0x00, 0x00, 0x00,
  0xda, 0xff, 0xff, 0xff, 0x0c, 0x00, 0x00, 0x00, 0x10, 0x00, 0x00, 0x00,
  0x04, 0x00, 0x00, 0x00, 0x01, 0x00, 0x00, 0x00, 0x19, 0x00, 0x00, 0x00,
  0x02, 0x00, 0x00, 0x00, 0x00, 0x00, 0x00, 0x00, 0x0a, 0x00, 0x00, 0x00,
  0x00, 0x00, 0x0a, 0x00, 0x10, 0x00, 0x0c, 0x00, 0x08, 0x00, 0x04, 0x00,
  0x0a, 0x00, 0x00, 0x00, 0x0c, 0x00, 0x00, 0x00, 0x10, 0x00, 0x00, 0x00,
  0x03, 0x00, 0x00, 0x00, 0x01, 0x00, 0x00, 0x00, 0x18, 0x00, 0x00, 0x00,
  0x02, 0x00, 0x00, 0x00, 0x17, 0x00, 0x00, 0x00, 0x06, 0x00, 0x00, 0x00,
  0xc2, 0xff, 0xff, 0xff, 0x1c, 0x00, 0x00, 0x00, 0x00, 0x00, 0x00, 0x3b,
  0x1c, 0x00, 0x00, 0x00, 0x20, 0x00, 0x00, 0x00, 0x02, 0x00, 0x00, 0x00,
  0x00, 0x00, 0x06, 0x00, 0x08, 0x00, 0x04, 0x00, 0x06, 0x00, 0x00, 0x00,
  0x02, 0x00, 0x00, 0x00, 0x01, 0x00, 0x00, 0x00, 0x17, 0x00, 0x00, 0x00,
  0x02, 0x00, 0x00, 0x00, 0x16, 0x00, 0x00, 0x00, 0x07, 0x00, 0x00, 0x00,
  0x00, 0x00, 0x0e, 0x00, 0x1a, 0x00, 0x14, 0x00, 0x10, 0x00, 0x0c, 0x00,
  0x0b, 0x00, 0x04, 0x00, 0x0e, 0x00, 0x00, 0x00, 0x24, 0x00, 0x00, 0x00,
  0x00, 0x00, 0x00, 0x20, 0x24, 0x00, 0x00, 0x00, 0x28, 0x00, 0x00, 0x00,
  0x01, 0x00, 0x00, 0x00, 0x00, 0x00, 0x0e, 0x00, 0x08, 0x00, 0x00, 0x00,
  0x00, 0x00, 0x00, 0x00, 0x00, 0x00, 0x04, 0x00, 0x0e, 0x00, 0x00, 0x00,
  0x01, 0x00, 0x00, 0x00, 0x01, 0x00, 0x00, 0x00, 0x16, 0x00, 0x00, 0x00,
  0x04, 0x00, 0x00, 0x00, 0x15, 0x00, 0x00, 0x00, 0x0c, 0x00, 0x00, 0x00,
  0x0b, 0x00, 0x00, 0x00, 0x0b, 0x00, 0x00, 0x00, 0x00, 0x00, 0x0e, 0x00,
  0x16, 0x00, 0x00, 0x00, 0x10, 0x00, 0x0c, 0x00, 0x0b, 0x00, 0x04, 0x00,
  0x0e, 0x00, 0x00, 0x00, 0x18, 0x00, 0x00, 0x00, 0x00, 0x00, 0x00, 0x37,
  0x18, 0x00, 0x00, 0x00, 0x1c, 0x00, 0x00, 0x00, 0x00, 0x00, 0x06, 0x00,
  0x08, 0x00, 0x07, 0x00, 0x06, 0x00, 0x00, 0x00, 0x00, 0x00, 0x00, 0x02,
  0x01, 0x00, 0x00, 0x00, 0x15, 0x00, 0x00, 0x00, 0x01, 0x00, 0x00, 0x00,
  0x00, 0x00, 0x00, 0x00, 0x01, 0x00, 0x00, 0x00, 0x36, 0x00, 0x00, 0x00,
  0x01, 0x00, 0x00, 0x00, 0x00, 0x00, 0x00, 0x00, 0x37, 0x00, 0x00, 0x00,
  0x3c, 0x0f, 0x00, 0x00, 0xd8, 0x0e, 0x00, 0x00, 0x78, 0x0e, 0x00, 0x00,
  0x28, 0x0e, 0x00, 0x00, 0xd4, 0x0d, 0x00, 0x00, 0x88, 0x0d, 0x00, 0x00,
  0x38, 0x0d, 0x00, 0x00, 0xf0, 0x0c, 0x00, 0x00, 0x8c, 0x0c, 0x00, 0x00,
  0x5c, 0x0c, 0x00, 0x00, 0x20, 0x0c, 0x00, 0x00, 0xcc, 0x0b, 0x00, 0x00,
  0x7c, 0x0b, 0x00, 0x00, 0x44, 0x0b, 0x00, 0x00, 0xe4, 0x0a, 0x00, 0x00,
  0x84, 0x0a, 0x00, 0x00, 0x40, 0x0a, 0x00, 0x00, 0xf8, 0x09, 0x00, 0x00,
  0xbc, 0x09, 0x00, 0x00, 0x7c, 0x09, 0x00, 0x00, 0x3c, 0x09, 0x00, 0x00,
  0xf8, 0x08, 0x00, 0x00, 0xb0, 0x08, 0x00, 0x00, 0x64, 0x08, 0x00, 0x00,
  0x10, 0x08, 0x00, 0x00, 0xc0, 0x07, 0x00, 0x00, 0x88, 0x07, 0x00, 0x00,
  0x38, 0x07, 0x00, 0x00, 0x08, 0x07, 0x00, 0x00, 0xd8, 0x06, 0x00, 0x00,
  0xa8, 0x06, 0x00, 0x00, 0x64, 0x06, 0x00, 0x00, 0x20, 0x06, 0x00, 0x00,
  0xf0, 0x05, 0x00, 0x00, 0x88, 0x05, 0x00, 0x00, 0x38, 0x05, 0x00, 0x00,
  0xf4, 0x04, 0x00, 0x00, 0xac, 0x04, 0x00, 0x00, 0x60, 0x04, 0x00, 0x00,
  0x0c, 0x04, 0x00, 0x00, 0xd0, 0x03, 0x00, 0x00, 0x9c, 0x03, 0x00, 0x00,
  0x64, 0x03, 0x00, 0x00, 0x10, 0x03, 0x00, 0x00, 0xe0, 0x02, 0x00, 0x00,
  0xb0, 0x02, 0x00, 0x00, 0x80, 0x02, 0x00, 0x00, 0x3c, 0x02, 0x00, 0x00,
  0xf8, 0x01, 0x00, 0x00, 0xc8, 0x01, 0x00, 0x00, 0x98, 0x01, 0x00, 0x00,
  0x30, 0x01, 0x00, 0x00, 0xe0, 0x00, 0x00, 0x00, 0x5c, 0x00, 0x00, 0x00,
  0x04, 0x00, 0x00, 0x00, 0xb4, 0xf1, 0xff, 0xff, 0x14, 0x00, 0x00, 0x00,
  0x1c, 0x00, 0x00, 0x00, 0x1c, 0x00, 0x00, 0x00, 0x37, 0x00, 0x00, 0x00,
  0x34, 0x00, 0x00, 0x00, 0x02, 0x00, 0x00, 0x00, 0xff, 0xff, 0xff, 0xff,
  0x02, 0x00, 0x00, 0x00, 0x94, 0xf0, 0xff, 0xff, 0x19, 0x00, 0x00, 0x00,
  0x53, 0x74, 0x61, 0x74, 0x65, 0x66, 0x75, 0x6c, 0x50, 0x61, 0x72, 0x74,
  0x69, 0x74, 0x69, 0x6f, 0x6e, 0x65, 0x64, 0x43, 0x61, 0x6c, 0x6c, 0x3a,
  0x30, 0x00, 0x00, 0x00, 0x02, 0x00, 0x00, 0x00, 0x01, 0x00, 0x00, 0x00,
  0x02, 0x00, 0x00, 0x00, 0x08, 0xf2, 0xff, 0xff, 0x14, 0x00, 0x00, 0x00,
  0x1c, 0x00, 0x00, 0x00, 0x1c, 0x00, 0x00, 0x00, 0x36, 0x00, 0x00, 0x00,
  0x60, 0x00, 0x00, 0x00, 0x02, 0x00, 0x00, 0x00, 0xff, 0xff, 0xff, 0xff,
  0x02, 0x00, 0x00, 0x00, 0xe8, 0xf0, 0xff, 0xff, 0x46, 0x00, 0x00, 0x00,
  0x73, 0x65, 0x71, 0x75, 0x65, 0x6e, 0x74, 0x69, 0x61, 0x6c, 0x2f, 0x64,
  0x65, 0x6e, 0x73, 0x65, 0x2f, 0x4d, 0x61, 0x74, 0x4d, 0x75, 0x6c, 0x3b,
  0x73, 0x65, 0x71, 0x75, 0x65, 0x6e, 0x74, 0x69, 0x61, 0x6c, 0x2f, 0x64,
  0x65, 0x6e, 0x73, 0x65, 0x2f, 0x52, 0x65, 0x6c, 0x75, 0x3b, 0x73, 0x65,
  0x71, 0x75, 0x65, 0x6e, 0x74, 0x69, 0x61, 0x6c, 0x2f, 0x64, 0x65, 0x6e,
  0x73, 0x65, 0x2f, 0x42, 0x69, 0x61, 0x73, 0x41, 0x64, 0x64, 0x00, 0x00,
  0x02, 0x00, 0x00, 0x00, 0x01, 0x00, 0x00, 0x00, 0x02, 0x00, 0x00, 0x00,
  0x88, 0xf2, 0xff, 0xff, 0x14, 0x00, 0x00, 0x00, 0x1c, 0x00, 0x00, 0x00,
  0x1c, 0x00, 0x00, 0x00, 0x35, 0x00, 0x00, 0x00, 0x2c, 0x00, 0x00, 0x00,
  0x02, 0x00, 0x00, 0x00, 0xff, 0xff, 0xff, 0xff, 0x04, 0x00, 0x00, 0x00,
  0x68, 0xf1, 0xff, 0xff, 0x10, 0x00, 0x00, 0x00, 0x73, 0x74, 0x72, 0x69,
  0x64, 0x65, 0x64, 0x5f, 0x73, 0x6c, 0x69, 0x63, 0x65, 0x5f, 0x32, 0x33,
  0x00, 0x00, 0x00, 0x00, 0x02, 0x00, 0x00, 0x00, 0x01, 0x00, 0x00, 0x00,
  0x04, 0x00, 0x00, 0x00, 0xd4, 0xf2, 0xff, 0xff, 0x14, 0x00, 0x00, 0x00,
  0x20, 0x00, 0x00, 0x00, 0x20, 0x00, 0x00, 0x00, 0x34, 0x00, 0x00, 0x00,
  0x40, 0x00, 0x00, 0x00, 0x03, 0x00, 0x00, 0x00, 0x01, 0x00, 0x00, 0x00,
  0xff, 0xff, 0xff, 0xff, 0x04, 0x00, 0x00, 0x00, 0xb8, 0xf1, 0xff, 0xff,
  0x23, 0x00, 0x00, 0x00, 0x54, 0x65, 0x6e, 0x73, 0x6f, 0x72, 0x41, 0x72,
  0x72, 0x61, 0x79, 0x56, 0x32, 0x53, 0x74, 0x61, 0x63, 0x6b, 0x2f, 0x54,
  0x65, 0x6e, 0x73, 0x6f, 0x72, 0x4c, 0x69, 0x73, 0x74, 0x53, 0x74, 0x61,
  0x63, 0x6b, 0x31, 0x00, 0x03, 0x00, 0x00, 0x00, 0x01, 0x00, 0x00, 0x00,
  0x01, 0x00, 0x00, 0x00, 0x04, 0x00, 0x00, 0x00, 0xd2, 0xf4, 0xff, 0xff,
  0x14, 0x00, 0x00, 0x00, 0x14, 0x00, 0x00, 0x00, 0x33, 0x00, 0x00, 0x00,
  0x00, 0x00, 0x00, 0x0e, 0x14, 0x00, 0x00, 0x00, 0x0c, 0xf2, 0xff, 0xff,
  0x07, 0x00, 0x00, 0x00, 0x77, 0x68, 0x69, 0x6c, 0x65, 0x31, 0x32, 0x00,
  0x00, 0x00, 0x00, 0x00, 0xfe, 0xf4, 0xff, 0xff, 0x14, 0x00, 0x00, 0x00,
  0x14, 0x00, 0x00, 0x00, 0x32, 0x00, 0x00, 0x00, 0x00, 0x00, 0x00, 0x02,
  0x14, 0x00, 0x00, 0x00, 0x38, 0xf2, 0xff, 0xff, 0x07, 0x00, 0x00, 0x00,
  0x77, 0x68, 0x69, 0x6c, 0x65, 0x31, 0x31, 0x00, 0x00, 0x00, 0x00, 0x00,
  0x90, 0xf3, 0xff, 0xff, 0x14, 0x00, 0x00, 0x00, 0x1c, 0x00, 0x00, 0x00,
  0x1c, 0x00, 0x00, 0x00, 0x31, 0x00, 0x00, 0x00, 0x20, 0x00, 0x00, 0x00,
  0x02, 0x00, 0x00, 0x00, 0xff, 0xff, 0xff, 0xff, 0x04, 0x00, 0x00, 0x00,
  0x70, 0xf2, 0xff, 0xff, 0x07, 0x00, 0x00, 0x00, 0x77, 0x68, 0x69, 0x6c,
  0x65, 0x31, 0x30, 0x00, 0x02, 0x00, 0x00, 0x00, 0x01, 0x00, 0x00, 0x00,
  0x04, 0x00, 0x00, 0x00, 0xd0, 0xf3, 0xff, 0xff, 0x14, 0x00, 0x00, 0x00,
  0x1c, 0x00, 0x00, 0x00, 0x1c, 0x00, 0x00, 0x00, 0x30, 0x00, 0x00, 0x00,
  0x20, 0x00, 0x00, 0x00, 0x02, 0x00, 0x00, 0x00, 0xff, 0xff, 0xff, 0xff,
  0x04, 0x00, 0x00, 0x00, 0xb0, 0xf2, 0xff, 0xff, 0x06, 0x00, 0x00, 0x00,
  0x77, 0x68, 0x69, 0x6c, 0x65, 0x39, 0x00, 0x00, 0x02, 0x00, 0x00, 0x00,
  0x01, 0x00, 0x00, 0x00, 0x04, 0x00, 0x00, 0x00, 0xaa, 0xf5, 0xff, 0xff,
  0x14, 0x00, 0x00, 0x00, 0x14, 0x00, 0x00, 0x00, 0x2f, 0x00, 0x00, 0x00,
  0x00, 0x00, 0x00, 0x0e, 0x14, 0x00, 0x00, 0x00, 0xe4, 0xf2, 0xff, 0xff,
  0x06, 0x00, 0x00, 0x00, 0x77, 0x68, 0x69, 0x6c, 0x65, 0x38, 0x00, 0x00,
  0x00, 0x00, 0x00, 0x00, 0xd6, 0xf5, 0xff, 0xff, 0x14, 0x00, 0x00, 0x00,
  0x14, 0x00, 0x00, 0x00, 0x2e, 0x00, 0x00, 0x00, 0x00, 0x00, 0x00, 0x02,
  0x14, 0x00, 0x00, 0x00, 0x10, 0xf3, 0xff, 0xff, 0x06, 0x00, 0x00, 0x00,
  0x77, 0x68, 0x69, 0x6c, 0x65, 0x37, 0x00, 0x00, 0x00, 0x00, 0x00, 0x00,
  0x02, 0xf6, 0xff, 0xff, 0x14, 0x00, 0x00, 0x00, 0x14, 0x00, 0x00, 0x00,
  0x2d, 0x00, 0x00, 0x00, 0x00, 0x00, 0x00, 0x02, 0x14, 0x00, 0x00, 0x00,
  0x3c, 0xf3, 0xff, 0xff, 0x06, 0x00, 0x00, 0x00, 0x77, 0x68, 0x69, 0x6c,
  0x65, 0x36, 0x00, 0x00, 0x00, 0x00, 0x00, 0x00, 0x2e, 0xf6, 0xff, 0xff,
  0x14, 0x00, 0x00, 0x00, 0x14, 0x00, 0x00, 0x00, 0x2c, 0x00, 0x00, 0x00,
  0x00, 0x00, 0x00, 0x0e, 0x38, 0x00, 0x00, 0x00, 0x68, 0xf3, 0xff, 0xff,
  0x28, 0x00, 0x00, 0x00, 0x54, 0x65, 0x6e, 0x73, 0x6f, 0x72, 0x41, 0x72,
  0x72, 0x61, 0x79, 0x55, 0x6e, 0x73, 0x74, 0x61, 0x63, 0x6b, 0x2f, 0x54,
  0x65, 0x6e, 0x73, 0x6f, 0x72, 0x4c, 0x69, 0x73, 0x74, 0x46, 0x72, 0x6f,
  0x6d, 0x54, 0x65, 0x6e, 0x73, 0x6f, 0x72, 0x31, 0x00, 0x00, 0x00, 0x00,
  0x00, 0x00, 0x00, 0x00, 0x7e, 0xf6, 0xff, 0xff, 0x14, 0x00, 0x00, 0x00,
  0x14, 0x00, 0x00, 0x00, 0x2b, 0x00, 0x00, 0x00, 0x00, 0x00, 0x00, 0x02,
  0x1c, 0x00, 0x00, 0x00, 0xb8, 0xf3, 0xff, 0xff, 0x0e, 0x00, 0x00, 0x00,
